{"version":"1.0","truncation":null,"padding":null,"added_tokens":[{"id":0,"special":true,"content":"[UNK]","single_word":false,"lstrip":false,"rstrip":false,"normalized":false},{"id":1,"special":true,"content":"[PAD]","single_word":false,"lstrip":false,"rstrip":false,"normalized":false}],"normalizer":{"type":"Sequence","normalizers":[{"type":"NFD"},{"type":"Lowercase"},{"type":"StripAccents"}]},"pre_tokenizer":{"type":"Whitespace"},"post_processor":null,"decoder":null,"model":{"type":"WordPiece","unk_token":"[UNK]","continuing_subword_prefix":"##","max_input_chars_per_word":100,"vocab":{"[UNK]":0,"[PAD]":1,"\u0002":2,"\u0003":3,"\u0005":4,"\u0006":5,"\u0007":6,"\u000e":7,"\u000f":8,"\u0013":9,"\u0014":10,"\u0017":11,"\u001d":12,"\u001f":13,"!":14,"\"":15,"#":16,"$":17,"%":18,"&":19,"'":20,"(":21,")":22,"*":23,"+":24,",":25,"-":26,".":27,"/":28,"0":29,"1":30,"2":31,"3":32,"4":33,"5":34,"6":35,"7":36,"8":37,"9":38,":":39,";":40,"<":41,"=":42,">":43,"?":44,"@":45,"[":46,"\\":47,"]":48,"^":49,"_":50,"`":51,"a":52,"b":53,"c":54,"d":55,"e":56,"f":57,"g":58,"h":59,"i":60,"j":61,"k":62,"l":63,"m":64,"n":65,"o":66,"p":67,"q":68,"r":69,"s":70,"t":71,"u":72,"v":73,"w":74,"x":75,"y":76,"z":77,"{":78,"|":79,"}":80,"~":81,"":82,"":83,"":84,"":85,"":86,"":87,"":88,"":89,"":90,"":91,"":92,"":93,"":94,"":95,"":96,"":97,"":98,"":99,"":100,"":101,"":102,"":103,"":104,"":105,"":106,"":107,"":108,"":109,"":110,"":111,"":112,"":113,"¡":114,"¢":115,"£":116,"¤":117,"¥":118,"¦":119,"§":120,"¨":121,"©":122,"ª":123,"«":124,"¬":125,"­":126,"®":127,"¯":128,"°":129,"±":130,"²":131,"³":132,"´":133,"µ":134,"¶":135,"·":136,"¸":137,"º":138,"»":139,"¼":140,"½":141,"¿":142,"×":143,"ß":144,"æ":145,"ð":146,"÷":147,"ø":148,"þ":149,"đ":150,"ı":151,"ł":152,"œ":153,"ƒ":154,"ɔ":155,"ə":156,"ɛ":157,"ɨ":158,"ʉ":159,"ʼ":160,"ˆ":161,"ˇ":162,"˜":163,"˝":164,"α":165,"β":166,"γ":167,"δ":168,"ε":169,"ζ":170,"η":171,"θ":172,"ι":173,"κ":174,"λ":175,"μ":176,"ν":177,"ξ":178,"ο":179,"π":180,"ρ":181,"ς":182,"σ":183,"τ":184,"υ":185,"φ":186,"χ":187,"ψ":188,"ω":189,"ϑ":190,"ϕ":191,"ϵ":192,"а":193,"б":194,"в":195,"г":196,"д":197,"е":198,"ж":199,"з":200,"и":201,"к":202,"л":203,"м":204,"н":205,"о":206,"п":207,"р":208,"с":209,"т":210,"у":211,"ф":212,"х":213,"ц":214,"ч":215,"ш":216,"щ":217,"ы":218,"ь":219,"э":220,"ю":221,"я":222,"א":223,"،":224,"ء":225,"ا":226,"ب":227,"ت":228,"ث":229,"ج":230,"ح":231,"خ":232,"د":233,"ذ":234,"ر":235,"ز":236,"س":237,"ش":238,"ص":239,"ض":240,"ط":241,"ظ":242,"ع":243,"غ":244,"ف":245,"ق":246,"ك":247,"ل":248,"م":249,"ن":250,"ه":251,"و":252,"ى":253,"ي":254,"ٱ":255,"پ":256,"چ":257,"ڈ":258,"ژ":259,"ک":260,"گ":261,"ں":262,"ھ":263,"ہ":264,"ی":265,"ے":266,"۔":267,"।":268,"෍":269,"෩":270,"๏":271,"ཬ":272,"ᄀ":273,"ᄁ":274,"ᄂ":275,"ᄃ":276,"ᄄ":277,"ᄅ":278,"ᄆ":279,"ᄇ":280,"ᄉ":281,"ᄋ":282,"ᄌ":283,"ᄎ":284,"ᄐ":285,"ᄑ":286,"ᄒ":287,"ᅡ":288,"ᅢ":289,"ᅣ":290,"ᅥ":291,"ᅦ":292,"ᅧ":293,"ᅨ":294,"ᅩ":295,"ᅪ":296,"ᅬ":297,"ᅭ":298,"ᅮ":299,"ᅱ":300,"ᅲ":301,"ᅳ":302,"ᅴ":303,"ᅵ":304,"ᆨ":305,"ᆫ":306,"ᆭ":307,"ᆮ":308,"ᆯ":309,"ᆷ":310,"ᆸ":311,"ᆺ":312,"ᆻ":313,"ᆼ":314,"ᆾ":315,"ᇀ":316,"ᇁ":317,"ሁ":318,"ሂ":319,"ሃ":320,"ህ":321,"ሆ":322,"ለ":323,"ሉ":324,"ላ":325,"ሌ":326,"ል":327,"ሎ":328,"ሐ":329,"ሓ":330,"መ":331,"ሙ":332,"ሚ":333,"ማ":334,"ሜ":335,"ም":336,"ሞ":337,"ረ":338,"ሪ":339,"ራ":340,"ር":341,"ሯ":342,"ሰ":343,"ሱ":344,"ሲ":345,"ሳ":346,"ስ":347,"ሶ":348,"ሸ":349,"ሻ":350,"ሽ":351,"ቀ":352,"ቃ":353,"ቅ":354,"ቋ":355,"በ":356,"ቢ":357,"ባ":358,"ብ":359,"ቦ":360,"ተ":361,"ቱ":362,"ታ":363,"ቴ":364,"ት":365,"ቶ":366,"ቷ":367,"ቸ":368,"ች":369,"ነ":370,"ኑ":371,"ኒ":372,"ና":373,"ን":374,"ኖ":375,"ኗ":376,"ኛ":377,"ኝ":378,"አ":379,"እ":380,"ከ":381,"ካ":382,"ኬ":383,"ክ":384,"ኮ":385,"ወ":386,"ዊ":387,"ው":388,"ዎ":389,"ዓ":390,"ዘ":391,"ዚ":392,"ዜ":393,"የ":394,"ዩ":395,"ያ":396,"ይ":397,"ደ":398,"ዱ":399,"ዲ":400,"ዳ":401,"ዴ":402,"ድ":403,"ጀ":404,"ጂ":405,"ጃ":406,"ገ":407,"ጉ":408,"ጊ":409,"ጋ":410,"ግ":411,"ጎ":412,"ጓ":413,"ጠ":414,"ጣ":415,"ጤ":416,"ጥ":417,"ጨ":418,"ጭ":419,"ጸ":420,"ጻ":421,"ጽ":422,"ፅ":423,"ፈ":424,"ፍ":425,"ፒ":426,"።":427,"፣":428,"፤":429,"​":430,"‎":431,"‐":432,"–":433,"—":434,"―":435,"‖":436,"‘":437,"’":438,"“":439,"”":440,"„":441,"‟":442,"†":443,"‡":444,"•":445,"‣":446,"‥":447,"…":448,"‰":449,"′":450,"″":451,"‹":452,"›":453,"⁀":454,"⁄":455,"⁴":456,"⁺":457,"₁":458,"₂":459,"€":460,"ℂ":461,"℄":462,"ℋ":463,"ℑ":464,"ℒ":465,"ℓ":466,"ℕ":467,"℘":468,"ℙ":469,"ℚ":470,"ℛ":471,"ℜ":472,"ℝ":473,"℞":474,"™":475,"ℤ":476,"ℰ":477,"ℱ":478,"ℳ":479,"⅔":480,"⅛":481,"←":482,"↑":483,"→":484,"↓":485,"↔":486,"↦":487,"↪":488,"↬":489,"↵":490,"⇐":491,"⇑":492,"⇒":493,"⇔":494,"⇠":495,"⇡":496,"⇢":497,"⇣":498,"⇤":499,"⇥":500,"⇧":501,"∀":502,"∂":503,"∃":504,"∅":505,"∆":506,"∇":507,"∈":508,"∊":509,"∏":510,"∑":511,"−":512,"∕":513,"∖":514,"∗":515,"∘":516,"∙":517,"√":518,"∝":519,"∞":520,"∣":521,"∥":522,"∧":523,"∨":524,"∩":525,"∪":526,"∫":527,"∶":528,"∼":529,"≃":530,"≅":531,"≈":532,"≍":533,"≐":534,"≓":535,"≔":536,"≡":537,"≤":538,"≥":539,"≪":540,"≫":541,"≺":542,"≻":543,"≼":544,"≽":545,"⊂":546,"⊃":547,"⊆":548,"⊇":549,"⊏":550,"⊑":551,"⊓":552,"⊔":553,"⊕":554,"⊖":555,"⊗":556,"⊙":557,"⊞":558,"⊢":559,"⊤":560,"⊥":561,"⊺":562,"⋀":563,"⋂":564,"⋃":565,"⋄":566,"⋅":567,"⋆":568,"⋈":569,"⋊":570,"⋮":571,"⋯":572,"⌃":573,"⌈":574,"⌉":575,"⌊":576,"⌋":577,"⌍":578,"⌘":579,"⌜":580,"⌝":581,"⌣":582,"⌦":583,"⌧":584,"⌫":585,"⎛":586,"⎜":587,"⎝":588,"⎞":589,"⎟":590,"⎠":591,"⎧":592,"⎨":593,"⎩":594,"⎪":595,"⎯":596,"─":597,"■":598,"□":599,"▪":600,"△":601,"▶":602,"▷":603,"►":604,"◆":605,"◊":606,"○":607,"●":608,"◦":609,"☹":610,"☺":611,"♠":612,"♣":613,"♥":614,"♦":615,"⚫":616,"✂":617,"✏":618,"✐":619,"✓":620,"✡":621,"✦":622,"✩":623,"✵":624,"✶":625,"✿":626,"❀":627,"❆":628,"❖":629,"❘":630,"❙":631,"❚":632,"❜":633,"❤":634,"❪":635,"❬":636,"❶":637,"❷":638,"❸":639,"➔":640,"➢":641,"⟨":642,"⟩":643,"⟶":644,"⨯":645,"⩽":646,"⩾":647,"⪡":648,"、":649,"。":650,"々":651,"〈":652,"〉":653,"「":654,"」":655,"【":656,"】":657,"あ":658,"い":659,"う":660,"え":661,"お":662,"か":663,"き":664,"く":665,"け":666,"こ":667,"さ":668,"し":669,"す":670,"せ":671,"そ":672,"た":673,"ち":674,"っ":675,"つ":676,"て":677,"と":678,"な":679,"に":680,"ね":681,"の":682,"は":683,"ひ":684,"ふ":685,"へ":686,"ほ":687,"ま":688,"み":689,"む":690,"め":691,"も":692,"や":693,"よ":694,"ら":695,"り":696,"る":697,"れ":698,"ろ":699,"わ":700,"を":701,"ん":702,"ア":703,"ィ":704,"イ":705,"ェ":706,"エ":707,"オ":708,"カ":709,"キ":710,"ク":711,"ケ":712,"コ":713,"サ":714,"シ":715,"ス":716,"セ":717,"ソ":718,"タ":719,"チ":720,"ッ":721,"テ":722,"ト":723,"ナ":724,"ニ":725,"ネ":726,"ノ":727,"ハ":728,"ヒ":729,"フ":730,"ヘ":731,"ホ":732,"マ":733,"ミ":734,"ム":735,"メ":736,"モ":737,"ャ":738,"ュ":739,"ユ":740,"ョ":741,"ラ":742,"リ":743,"ル":744,"レ":745,"ロ":746,"ワ":747,"ン":748,"・":749,"ー":750,"䀓":751,"䉂":752,"䚲":753,"䡮":754,"一":755,"万":756,"三":757,"上":758,"下":759,"不":760,"与":761,"专":762,"且":763,"丘":764,"両":765,"两":766,"並":767,"个":768,"中":769,"丰":770,"临":771,"为":772,"主":773,"义":774,"之":775,"乘":776,"也":777,"习":778,"乾":779,"了":780,"予":781,"事":782,"二":783,"于":784,"互":785,"些":786,"亡":787,"交":788,"产":789,"京":790,"人":791,"今":792,"介":793,"从":794,"他":795,"付":796,"代":797,"以":798,"们":799,"仮":800,"件":801,"价":802,"任":803,"优":804,"会":805,"伝":806,"传":807,"伯":808,"估":809,"似":810,"但":811,"位":812,"低":813,"体":814,"何":815,"作":816,"你":817,"併":818,"使":819,"來":820,"例":821,"供":822,"依":823,"価":824,"便":825,"係":826,"促":827,"保":828,"信":829,"個":830,"們":831,"値":832,"值":833,"假":834,"做":835,"停":836,"健":837,"側":838,"偵":839,"偶":840,"傅":841,"傍":842,"像":843,"價":844,"優":845,"元":846,"兄":847,"充":848,"先":849,"克":850,"入":851,"全":852,"共":853,"关":854,"其":855,"具":856,"典":857,"内":858,"円":859,"再":860,"写":861,"冲":862,"决":863,"况":864,"准":865,"几":866,"処":867,"凶":868,"出":869,"分":870,"切":871,"列":872,"创":873,"初":874,"判":875,"別":876,"利":877,"别":878,"到":879,"制":880,"刺":881,"則":882,"前":883,"剖":884,"割":885,"創":886,"力":887,"加":888,"务":889,"动":890,"助":891,"効":892,"動":893,"包":894,"化":895,"北":896,"区":897,"十":898,"升":899,"半":900,"協":901,"单":902,"単":903,"即":904,"历":905,"原":906,"去":907,"参":908,"又":909,"及":910,"双":911,"反":912,"发":913,"取":914,"变":915,"口":916,"古":917,"句":918,"另":919,"叩":920,"叫":921,"召":922,"可":923,"史":924,"叶":925,"各":926,"合":927,"同":928,"名":929,"后":930,"向":931,"否":932,"含":933,"吸":934,"吹":935,"告":936,"员":937,"周":938,"味":939,"呼":940,"和":941,"品":942,"問":943,"善":944,"器":945,"噪":946,"四":947,"回":948,"因":949,"困":950,"囲":951,"围":952,"固":953,"国":954,"图":955,"圧":956,"在":957,"地":958,"场":959,"均":960,"坦":961,"型":962,"埋":963,"域":964,"基":965,"堅":966,"堆":967,"報":968,"場":969,"境":970,"増":971,"增":972,"士":973,"声":974,"处":975,"备":976,"変":977,"复":978,"外":979,"多":980,"够":981,"大":982,"天":983,"太":984,"奒":985,"奖":986,"好":987,"如":988,"姆":989,"始":990,"子":991,"字":992,"存":993,"孤":994,"学":995,"孫":996,"學":997,"它":998,"安":999,"完":1000,"官":1001,"定":1002,"实":1003,"実":1004,"客":1005,"家":1006,"容":1007,"宾":1008,"富":1009,"察":1010,"實":1011,"对":1012,"导":1013,"対":1014,"射":1015,"将":1016,"對":1017,"小":1018,"少":1019,"尽":1020,"尾":1021,"尿":1022,"局":1023,"展":1024,"層":1025,"崎":1026,"州":1027,"工":1028,"己":1029,"布":1030,"师":1031,"師":1032,"帮":1033,"常":1034,"幫":1035,"干":1036,"平":1037,"年":1038,"并":1039,"广":1040,"序":1041,"库":1042,"应":1043,"度":1044,"座":1045,"庫":1046,"康":1047,"延":1048,"建":1049,"开":1050,"异":1051,"式":1052,"引":1053,"弟":1054,"張":1055,"強":1056,"强":1057,"归":1058,"当":1059,"录":1060,"彙":1061,"形":1062,"影":1063,"往":1064,"征":1065,"待":1066,"很":1067,"後":1068,"従":1069,"得":1070,"徴":1071,"徵":1072,"心":1073,"必":1074,"応":1075,"快":1076,"态":1077,"思":1078,"性":1079,"总":1080,"恒":1081,"息":1082,"悪":1083,"悶":1084,"情":1085,"想":1086,"惼":1087,"意":1088,"感":1089,"態":1090,"憶":1091,"成":1092,"我":1093,"或":1094,"战":1095,"户":1096,"所":1097,"手":1098,"扩":1099,"扰":1100,"扱":1101,"找":1102,"技":1103,"把":1104,"抑":1105,"択":1106,"报":1107,"抽":1108,"拓":1109,"拟":1110,"拡":1111,"括":1112,"持":1113,"指":1114,"挑":1115,"挙":1116,"振":1117,"捕":1118,"据":1119,"掉":1120,"探":1121,"接":1122,"推":1123,"提":1124,"搜":1125,"摘":1126,"擌":1127,"擾":1128,"改":1129,"效":1130,"敏":1131,"教":1132,"数":1133,"整":1134,"文":1135,"料":1136,"斬":1137,"斯":1138,"新":1139,"方":1140,"於":1141,"无":1142,"既":1143,"日":1144,"时":1145,"昂":1146,"明":1147,"易":1148,"映":1149,"昨":1150,"是":1151,"显":1152,"時":1153,"晚":1154,"普":1155,"更":1156,"書":1157,"最":1158,"有":1159,"服":1160,"期":1161,"木":1162,"未":1163,"本":1164,"机":1165,"杂":1166,"李":1167,"条":1168,"来":1169,"极":1170,"构":1171,"析":1172,"果":1173,"架":1174,"染":1175,"柔":1176,"查":1177,"査":1178,"标":1179,"树":1180,"校":1181,"样":1182,"根":1183,"框":1184,"案":1185,"械":1186,"检":1187,"検":1188,"概":1189,"構":1190,"様":1191,"標":1192,"模":1193,"機":1194,"欠":1195,"次":1196,"正":1197,"此":1198,"步":1199,"歧":1200,"歯":1201,"死":1202,"段":1203,"母":1204,"每":1205,"比":1206,"民":1207,"气":1208,"水":1209,"永":1210,"求":1211,"汇":1212,"汉":1213,"汚":1214,"決":1215,"沟":1216,"没":1217,"沿":1218,"況":1219,"法":1220,"注":1221,"洁":1222,"活":1223,"派":1224,"流":1225,"测":1226,"消":1227,"涡":1228,"涵":1229,"淆":1230,"混":1231,"減":1232,"測":1233,"満":1234,"準":1235,"滑":1236,"滤":1237,"潔":1238,"潤":1239,"激":1240,"灵":1241,"炸":1242,"点":1243,"烟":1244,"無":1245,"然":1246,"燥":1247,"爆":1248,"版":1249,"牢":1250,"物":1251,"特":1252,"状":1253,"献":1254,"率":1255,"玉":1256,"现":1257,"班":1258,"現":1259,"理":1260,"環":1261,"瓶":1262,"生":1263,"用":1264,"田":1265,"由":1266,"町":1267,"画":1268,"界":1269,"留":1270,"略":1271,"番":1272,"異":1273,"畴":1274,"疑":1275,"病":1276,"症":1277,"発":1278,"白":1279,"百":1280,"的":1281,"皮":1282,"监":1283,"盖":1284,"目":1285,"直":1286,"相":1287,"真":1288,"眼":1289,"着":1290,"督":1291,"知":1292,"短":1293,"研":1294,"础":1295,"确":1296,"確":1297,"礎":1298,"示":1299,"社":1300,"神":1301,"福":1302,"离":1303,"私":1304,"种":1305,"科":1306,"称":1307,"移":1308,"程":1309,"種":1310,"稿":1311,"究":1312,"空":1313,"突":1314,"立":1315,"章":1316,"第":1317,"等":1318,"答":1319,"策":1320,"筛":1321,"简":1322,"箇":1323,"算":1324,"管":1325,"節":1326,"範":1327,"篇":1328,"築":1329,"簡":1330,"类":1331,"粉":1332,"精":1333,"系":1334,"約":1335,"純":1336,"素":1337,"索":1338,"細":1339,"紹":1340,"組":1341,"結":1342,"統":1343,"続":1344,"網":1345,"緩":1346,"縮":1347,"織":1348,"繰":1349,"纠":1350,"约":1351,"纯":1352,"纳":1353,"线":1354,"练":1355,"组":1356,"织":1357,"终":1358,"绍":1359,"经":1360,"结":1361,"绕":1362,"络":1363,"统":1364,"继":1365,"续":1366,"网":1367,"置":1368,"美":1369,"群":1370,"義":1371,"習":1372,"翻":1373,"考":1374,"者":1375,"而":1376,"耗":1377,"联":1378,"肌":1379,"背":1380,"能":1381,"脂":1382,"膚":1383,"自":1384,"臭":1385,"致":1386,"臼":1387,"與":1388,"舞":1389,"航":1390,"般":1391,"良":1392,"色":1393,"节":1394,"花":1395,"英":1396,"范":1397,"获":1398,"菌":1399,"葉":1400,"著":1401,"蒂":1402,"藏":1403,"虑":1404,"處":1405,"虫":1406,"融":1407,"行":1408,"表":1409,"袋":1410,"被":1411,"複":1412,"要":1413,"覆":1414,"見":1415,"規":1416,"視":1417,"覚":1418,"観":1419,"规":1420,"解":1421,"触":1422,"言":1423,"計":1424,"討":1425,"記":1426,"設":1427,"訳":1428,"証":1429,"評":1430,"詞":1431,"話":1432,"詳":1433,"認":1434,"語":1435,"誤":1436,"説":1437,"読":1438,"調":1439,"論":1440,"識":1441,"譯":1442,"議":1443,"计":1444,"训":1445,"记":1446,"论":1447,"设":1448,"证":1449,"评":1450,"识":1451,"词":1452,"译":1453,"试":1454,"话":1455,"询":1456,"该":1457,"语":1458,"误":1459,"说":1460,"读":1461,"调":1462,"谷":1463,"象":1464,"貫":1465,"資":1466,"質":1467,"贝":1468,"负":1469,"责":1470,"质":1471,"贵":1472,"赖":1473,"起":1474,"越":1475,"足":1476,"距":1477,"跨":1478,"路":1479,"車":1480,"軟":1481,"转":1482,"轮":1483,"较":1484,"辅":1485,"输":1486,"辞":1487,"边":1488,"込":1489,"达":1490,"过":1491,"运":1492,"近":1493,"返":1494,"还":1495,"这":1496,"进":1497,"迭":1498,"述":1499,"追":1500,"选":1501,"途":1502,"這":1503,"通":1504,"速":1505,"造":1506,"連":1507,"進":1508,"遇":1509,"過":1510,"達":1511,"違":1512,"適":1513,"選":1514,"遺":1515,"還":1516,"邑":1517,"郎":1518,"部":1519,"都":1520,"酵":1521,"酸":1522,"采":1523,"重":1524,"野":1525,"量":1526,"錯":1527,"録":1528,"针":1529,"错":1530,"長":1531,"长":1532,"間":1533,"関":1534,"问":1535,"间":1536,"阐":1537,"防":1538,"陀":1539,"陈":1540,"降":1541,"限":1542,"除":1543,"階":1544,"隙":1545,"際":1546,"集":1547,"雑":1548,"難":1549,"電":1550,"需":1551,"非":1552,"靠":1553,"面":1554,"音":1555,"響":1556,"項":1557,"頑":1558,"領":1559,"頭":1560,"頼":1561,"題":1562,"顔":1563,"顕":1564,"類":1565,"顯":1566,"预":1567,"领":1568,"颈":1569,"频":1570,"题":1571,"飛":1572,"飞":1573,"食":1574,"餐":1575,"馆":1576,"首":1577,"騎":1578,"験":1579,"驗":1580,"验":1581,"高":1582,"鸿":1583,"黒":1584,"齐":1585,"":1586,"":1587,"":1588,"":1589,"":1590,"":1591,"":1592,"":1593,"":1594,"":1595,"":1596,"":1597,"":1598,"":1599,"":1600,"":1601,"":1602,"":1603,"":1604,"":1605,"":1606,"":1607,"":1608,"":1609,"":1610,"":1611,"":1612,"":1613,"":1614,"":1615,"":1616,"":1617,"":1618,"":1619,"":1620,"":1621,"":1622,"":1623,"":1624,"":1625,"":1626,"":1627,"":1628,"":1629,"":1630,"":1631,"":1632,"":1633,"":1634,"":1635,"":1636,"":1637,"":1638,"":1639,"":1640,"":1641,"":1642,"":1643,"":1644,"":1645,"":1646,"":1647,"":1648,"":1649,"":1650,"":1651,"":1652,"":1653,"":1654,"":1655,"":1656,"":1657,"":1658,"":1659,"":1660,"":1661,"":1662,"":1663,"":1664,"":1665,"":1666,"":1667,"":1668,"":1669,"":1670,"":1671,"":1672,"":1673,"":1674,"":1675,"":1676,"":1677,"":1678,"":1679,"":1680,"":1681,"":1682,"":1683,"":1684,"":1685,"":1686,"":1687,"":1688,"":1689,"":1690,"":1691,"":1692,"":1693,"":1694,"":1695,"":1696,"":1697,"":1698,"":1699,"":1700,"":1701,"":1702,"﻿":1703,"：":1704,"�":1705,"𝒢":1706,"𝒩":1707,"𝒪":1708,"𝓁":1709,"𝔹":1710,"𝕀":1711,"𝕊":1712,"👫":1713,"📲":1714,"😃":1715,"##i":1716,"##s":1717,"##c":1718,"##o":1719,"##v":1720,"##e":1721,"##n":1722,"##t":1723,"##r":1724,"##2":1725,"##p":1726,"##f":1727,"##5":1728,"##8":1729,"##d":1730,"##a":1731,"##m":1732,"##l":1733,"##u":1734,"##h":1735,"##0":1736,"##w":1737,"##b":1738,"##x":1739,"##":1740,"##z":1741,"##1":1742,"##y":1743,"##7":1744,"##9":1745,"##g":1746,"##j":1747,"##k":1748,"##_":1749,"##4":1750,"##q":1751,"##6":1752,"##":1753,"##'":1754,"##":1755,"##":1756,"##":1757,"##/":1758,"##3":1759,"##;":1760,"##‘":1761,"##^":1762,"##-":1763,"##∥":1764,"##(":1765,"##∇":1766,"##":1767,"##þ":1768,"##”":1769,"##¤":1770,"##«":1771,"##&":1772,"##¡":1773,"##+":1774,"##∞":1775,"##.":1776,"##~":1777,"##":1778,"##":1779,"##":1780,"##":1781,"##)":1782,"##":1783,"##|":1784,"##%":1785,"##*":1786,"##и":1787,"##с":1788,"##т":1789,"##е":1790,"##м":1791,"##ы":1792,"##α":1793,"##ر":1794,"##و":1795,"##م":1796,"##?":1797,"##,":1798,"##­":1799,"##®":1800,"##":1801,"##\"":1802,"##$":1803,"##ω":1804,"##}":1805,"##":1806,"##":1807,"##’":1808,"##መ":1809,"##ጠ":1810,"##ቀ":1811,"##ም":1812,"##":1813,"##[":1814,"##":1815,"##∆":1816,"##人":1817,"##工":1818,"##标":1819,"##注":1820,"##的":1821,"##数":1822,"##据":1823,"##集":1824,"##以":1825,"##及":1826,"##推":1827,"##特":1828,"##搜":1829,"##索":1830,"##£":1831,"##":1832,"##":1833,"##":1834,"##":1835,"##":1836,"##":1837,"##ø":1838,"##:":1839,"##≥":1840,"##о":1841,"##б":1842,"##р":1843,"##а":1844,"##н":1845,"##х":1846,"##間":1847,"##レ":1848,"##ヘ":1849,"##ル":1850,"##の":1851,"##知":1852,"##覚":1853,"##ク":1854,"##ー":1855,"##フ":1856,"##化":1857,"##ε":1858,"##γ":1859,"##§":1860,"##в":1861,"##у":1862,"##〉":1863,"##":1864,"###":1865,"##σ":1866,"##ι":1867,"##κ":1868,"##η":1869,"##<":1870,"##":1871,"##们":1872,"##提":1873,"##出":1874,"##下":1875,"##两":1876,"##个":1877,"##改":1878,"##进":1879,"##に":1880,"##æ":1881,"##":1882,"##>":1883,"##ˆ":1884,"##恒":1885,"##⇒":1886,"##]":1887,"##\\":1888,"##":1889,"##@":1890,"##ο":1891,"##ν":1892,"##ρ":1893,"##標":1894,"##と":1895,"##同":1896,"##時":1897,"##進":1898,"##行":1899,"##す":1900,"##る":1901,"##調":1902,"##停":1903,"##機":1904,"##構":1905,"##か":1906,"##な":1907,"##":1908,"##":1909,"##":1910,"##±":1911,"##ک":1912,"##=":1913,"##":1914,"##{":1915,"##¶":1916,"##¥":1917,"##":1918,"##":1919,"##س":1920,"##々":1921,"##ア":1922,"##コ":1923,"##リ":1924,"##ス":1925,"##ム":1926,"##複":1927,"##雑":1928,"##性":1929,"##は":1930,"##非":1931,"##常":1932,"##低":1933,"##い":1934,"##":1935,"##言":1936,"##語":1937,"##て":1938,"##生":1939,"##成":1940,"##さ":1941,"##れ":1942,"##た":1943,"##部":1944,"##分":1945,"##木":1946,"##ら":1947,"##":1948,"##ð":1949,"##文":1950,"##網":1951,"##路":1952,"##!":1953,"##般":1954,"##来":1955,"##说":1956,"##μ":1957,"##`":1958,"##¢":1959,"##�":1960,"##ı":1961,"##≪":1962,"##¬":1963,"##ተ":1964,"##ፈ":1965,"##ጥ":1966,"##ሯ":1967,"##ዊ":1968,"##β":1969,"##→":1970,"##ا":1971,"##ي":1972,"##ن":1973,"##":1974,"##°":1975,"##ч":1976,"##к":1977,"##г":1978,"##":1979,"##»":1980,"##つ":1981,"##正":1982,"##則":1983,"##手":1984,"##法":1985,"##洁":1986,"##•":1987,"##©":1988,"##¦":1989,"##ッ":1990,"##シ":1991,"##け":1992,"##く":1993,"##ハ":1994,"##ン":1995,"##を":1996,"##り":1997,"##し":1998,"##使":1999,"##う":2000,"##こ":2001,"##案":2002,"##評":2003,"##価":2004,"##セ":2005,"##ト":2006,"##用":2007,"##実":2008,"##験":2009,"##よ":2010,"##µ":2011,"##—":2012,"##θ":2013,"##π":2014,"##ς":2015,"##·":2016,"##":2017,"##ق":2018,"##л":2019,"##д":2020,"##я":2021,"##ዜ":2022,"##ラ":2023,"##δ":2024,"##タ":2025,"##問":2026,"##題":2027,"##“":2028,"##比":2029,"##基":2030,"##于":2031,"##图":2032,"##联":2033,"##合":2034,"##模":2035,"##型":2036,"##为":2037,"##被":2038,"##指":2039,"##导":2040,"##由":2041,"##ß":2042,"##ψ":2043,"##د":2044,"##ف":2045,"##":2046,"##次":2047,"##定":2048,"##领":2049,"##域":2050,"##存":2051,"##在":2052,"##长":2053,"##尾":2054,"##频":2055,"##关":2056,"##‖":2057,"##п":2058,"##ь":2059,"##з":2060,"##−":2061,"##ክ":2062,"##ኖ":2063,"##ሎ":2064,"##ጂ":2065,"##ю":2066,"##щ":2067,"##∑":2068,"##τ":2069,"##ニ":2070,"##ノ":2071,"##類":2072,"##⊥":2073,"##電":2074,"##話":2075,"##発":2076,"##明":2077,"##き":2078,"##∗":2079,"##め":2080,"##計":2081,"##画":2082,"##沿":2083,"##っ":2084,"##∃":2085,"##":2086,"##䡮":2087,"##ኛ":2088,"##縮":2089,"##ه":2090,"##ب":2091,"##本":2092,"##中":2093,"##そ":2094,"##質":2095,"##論":2096,"##既":2097,"##λ":2098,"##×":2099,"##ص":2100,"##خ":2101,"##ش":2102,"##層":2103,"##造":2104,"##持":2105,"##品":2106,"##詞":2107,"##体":2108,"##系":2109,"##や":2110,"##字":2111,"##種":2112,"##情":2113,"##報":2114,"##対":2115,"##柔":2116,"##軟":2117,"##素":2118,"##設":2119,"##可":2120,"##能":2121,"##∩":2122,"##得":2123,"##淆":2124,"##质":2125,"##量":2126,"##是":2127,"##相":2128,"##当":2129,"##ን":2130,"##ድ":2131,"##":2132,"##":2133,"##":2134,"##":2135,"##了":2136,"##解":2137,"##决":2138,"##上":2139,"##问":2140,"##题":2141,"##ር":2142,"##ኒ":2143,"##ግ":2144,"##確":2145,"##述":2146,"##へ":2147,"##始":2148,"##士":2149,"##依":2150,"##関":2151,"##係":2152,"##各":2153,"##近":2154,"##箇":2155,"##所":2156,"##単":2157,"##گ":2158,"##机":2159,"##备":2160,"##降":2161,"##太":2162,"##原":2163,"##场":2164,"##φ":2165,"##ƒ":2166,"##ل":2167,"##√":2168,"##代":2169,"##重":2170,"##估":2171,"##算":2172,"##⌦":2173,"##检":2174,"##目":2175,"##从":2176,"##历":2177,"##史":2178,"##查":2179,"##找":2180,"##与":2181,"##询":2182,"##语":2183,"##义":2184,"##等":2185,"##价":2186,"##或":2187,"##ᅥ":2188,"##ᆼ":2189,"##ᄂ":2190,"##ᅳ":2191,"##ᄋ":2192,"##ᆯ":2193,"##ᄉ":2194,"##ᅦ":2195,"##ᄌ":2196,"##ᅩ":2197,"##ᄆ":2198,"##ᅡ":2199,"##ᅮ":2200,"##ᄎ":2201,"##ᅵ":2202,"##ᄅ":2203,"##ᅭ":2204,"##ᄒ":2205,"##ᅧ":2206,"##ᅣ":2207,"##ᆨ":2208,"##ᄑ":2209,"##ᄀ":2210,"##ᆫ":2211,"##ᅪ":2212,"##∼":2213,"##÷":2214,"##ᅨ":2215,"##彙":2216,"##小":2217,"##必":2218,"##包":2219,"##含":2220,"##徴":2221,"##利":2222,"##向":2223,"##任":2224,"##务":2225,"##对":2226,"##话":2227,"##状":2228,"##态":2229,"##表":2230,"##示":2231,"##序":2232,"##列":2233,"##到":2234,"##学":2235,"##习":2236,"##ж":2237,"##些":2238,"##混":2239,"##者":2240,"##专":2241,"##家":2242,"##总":2243,"##结":2244,"##经":2245,"##验":2246,"##ط":2247,"##エ":2248,"##拡":2249,"##張":2250,"##固":2251,"##有":2252,"##現":2253,"##辞":2254,"##書":2255,"##築":2256,"##英":2257,"##宾":2258,"##州":2259,"##树":2260,"##库":2261,"##实":2262,"##果":2263,"##显":2264,"##我":2265,"##边":2266,"##界":2267,"##词":2268,"##和":2269,"##贝":2270,"##叶":2271,"##斯":2272,"##⌊":2273,"##≡":2274,"##ع":2275,"##该":2276,"##一":2277,"##其":2278,"##⟨":2279,"##も":2280,"##斬":2281,"##新":2282,"##動":2283,"##選":2284,"##択":2285,"##":2286,"##⋯":2287,"##ሉ":2288,"##∂":2289,"##ᆺ":2290,"##∈":2291,"##也":2292,"##高":2293,"##此":2294,"##方":2295,"##位":2296,"##階":2297,"##ሆ":2298,"##ነ":2299,"##ł":2300,"##要":2301,"##υ":2302,"##χ":2303,"##制":2304,"##約":2305,"##緩":2306,"##日":2307,"##圧":2308,"##ጤ":2309,"##ታ":2310,"##ማ":2311,"##ት":2312,"##析":2313,"##精":2314,"##度":2315,"##善":2316,"##準":2317,"##簡":2318,"##組":2319,"##み":2320,"##込":2321,"##⊔":2322,"##†":2323,"##先":2324,"##它":2325,"##需":2326,"##大":2327,"##训":2328,"##练":2329,"##❀":2330,"##❘":2331,"##∪":2332,"##ረ":2333,"##ዳ":2334,"##转":2335,"##移":2336,"##句":2337,"##拓":2338,"##展":2339,"##而":2340,"##形":2341,"##በ":2342,"##ራ":2343,"##ዎ":2344,"##ች":2345,"##组":2346,"##范":2347,"##畴":2348,"##仮":2349,"##説":2350,"##検":2351,"##証":2352,"##ひ":2353,"##开":2354,"##发":2355,"##摘":2356,"##录":2357,"##统":2358,"##这":2359,"##种":2360,"##不":2361,"##統":2362,"##激":2363,"##航":2364,"##空":2365,"##爆":2366,"##炸":2367,"##致":2368,"##多":2369,"##死":2370,"##亡":2371,"##":2372,"##":2373,"##":2374,"##":2375,"##":2376,"##":2377,"##":2378,"##":2379,"##際":2380,"##わ":2381,"##強":2382,"##モ":2383,"##テ":2384,"##↵":2385,"##":2386,"##":2387,"##":2388,"##":2389,"##予":2390,"##測":2391,"##結":2392,"##凶":2393,"##↬":2394,"##ی":2395,"##ш":2396,"##ま":2397,"##‡":2398,"##イ":2399,"##メ":2400,"##お":2401,"##主":2402,"##ለ":2403,"##ያ":2404,"##ዩ":2405,"##。":2406,"##误":2407,"##布":2408,"##并":2409,"##样":2410,"##典":2411,"##齐":2412,"##":2413,"##ሻ":2414,"##ል":2415,"##礎":2416,"##供":2417,"##あ":2418,"##ኬ":2419,"##ቶ":2420,"##ヒ":2421,"##ュ":2422,"##⌣":2423,"##架":2424,"##◦":2425,"##ξ":2426,"##⇥":2427,"##⊆":2428,"##色":2429,"##←":2430,"##∀":2431,"##œ":2432,"##ц":2433,"##玉":2434,"##菌":2435,"##稿":2436,"##征":2437,"##⋅":2438,"##ζ":2439,"##料":2440,"##庫":2441,"##ز":2442,"##ح":2443,"##例":2444,"##ھ":2445,"##ላ":2446,"##º":2447,"##¿":2448,"##式":2449,"##永":2450,"##康":2451,"##理":2452,"##サ":2453,"##保":2454,"##⇤":2455,"##答":2456,"##取":2457,"##优":2458,"##异":2459,"##效":2460,"##都":2461,"##⊕":2462,"##ɔ":2463,"##ʉ":2464,"##□":2465,"##版":2466,"##引":2467,"##入":2468,"##噪":2469,"##声":2470,"##似":2471,"##敏":2472,"##感":2473,"##餐":2474,"##馆":2475,"##过":2476,"##程":2477,"##立":2478,"##場":2479,"##‹":2480,"##良":2481,"##具":2482,"##更":2483,"##剖":2484,"##∨":2485,"##≃":2486,"##盖":2487,"##面":2488,"##广":2489,"##昂":2490,"##贵":2491,"##又":2492,"##耗":2493,"##时":2494,"##然":2495,"##処":2496,"##様":2497,"##ケ":2498,"##ョ":2499,"##把":2500,"##汇":2501,"##信":2502,"##息":2503,"##识":2504,"##获":2505,"##探":2506,"##神":2507,"##网":2508,"##络":2509,"##类":2510,"##ኑ":2511,"##≤":2512,"##ጣ":2513,"##ሚ":2514,"##∅":2515,"##✵":2516,"##教":2517,"##師":2518,"##名":2519,"##二":2520,"##値":2521,"##章":2522,"##態":2523,"##併":2524,"##這":2525,"##徵":2526,"##且":2527,"##拟":2528,"##单":2529,"##内":2530,"##涵":2531,"##外":2532,"##延":2533,"##读":2534,"##户":2535,"##克":2536,"##服":2537,"##条":2538,"##消":2539,"##足":2540,"##⌫":2541,"##ᄃ":2542,"##ᅬ":2543,"##え":2544,"##﻿":2545,"##试":2546,"##ロ":2547,"##ナ":2548,"##ソ":2549,"##カ":2550,"##捕":2551,"##距":2552,"##离":2553,"##ф":2554,"##社":2555,"##区":2556,"##研":2557,"##究":2558,"##变":2559,"##越":2560,"##流":2561,"##飞":2562,"##北":2563,"##京":2564,"##班":2565,"##现":2566,"##吸":2567,"##烟":2568,"##往":2569,"##…":2570,"##پ":2571,"##均":2572,"##如":2573,"##ت":2574,"##员":2575,"##乘":2576,"##客":2577,"##冲":2578,"##突":2579,"##節":2580,"##キ":2581,"##":2582,"##":2583,"##":2584,"##":2585,"##":2586,"##弟":2587,"##孫":2588,"##ϕ":2589,"##ᆭ":2590,"##ᅱ":2591,"##ᄐ":2592,"##ᅢ":2593,"##ᄇ":2594,"##ᅲ":2595,"##ᅴ":2596,"##ᆸ":2597,"##ᄁ":2598,"##≈":2599,"##藏":2600,"##别":2601,"##框":2602,"##自":2603,"##ェ":2604,"##挙":2605,"##之":2606,"##间":2607,"##创":2608,"##建":2609,"##ڈ":2610,"##ሶ":2611,"##纯":2612,"##創":2613,"##振":2614,"##舞":2615,"##ሲ":2616,"##ስ":2617,"##€":2618,"##呼":2619,"##ネ":2620,"##ዲ":2621,"##":2622,"##事":2623,"##件":2624,"##触":2625,"##ቃ":2626,"##誤":2627,"##応":2628,"##付":2629,"##防":2630,"##–":2631,"##於":2632,"##跨":2633,"##領":2634,"##器":2635,"##翻":2636,"##譯":2637,"##介":2638,"##⊇":2639,"##⊤":2640,"##":2641,"##":2642,"##ᇀ":2643,"##⌉":2644,"##孤":2645,"##ふ":2646,"##境":2647,"##ጻ":2648,"##ፍ":2649,"##期":2650,"##天":2651,"##气":2652,"##因":2653,"##堅":2654,"##牢":2655,"##真":2656,"##ጃ":2657,"##半":2658,"##習":2659,"##適":2660,"##酵":2661,"##抽":2662,"##双":2663,"##映":2664,"##射":2665,"##⎪":2666,"##⎨":2667,"##约":2668,"##〈":2669,"##⎟":2670,"##计":2671,"##著":2672,"##■":2673,"##作":2674,"##第":2675,"##群":2676,"##动":2677,"##纠":2678,"##错":2679,"##ج":2680,"##篇":2681,"##构":2682,"##献":2683,"##叫":2684,"##国":2685,"##复":2686,"##杂":2687,"##ワ":2688,"##考":2689,"##♥":2690,"##難":2691,"##判":2692,"##黒":2693,"##両":2694,"##像":2695,"##割":2696,"##優":2697,"##′":2698,"##町":2699,"##ሓ":2700,"##ይ":2701,"##准":2702,"##确":2703,"##率":2704,"##达":2705,"##況":2706,"##ሙ":2707,"##የ":2708,"##ə":2709,"##無":2710,"##ደ":2711,"##⌜":2712,"##还":2713,"##マ":2714,"##己":2715,"##織":2716,"##":2717,"##极":2718,"##升":2719,"##线":2720,"##ℒ":2721,"##译":2722,"##":2723,"##":2724,"##":2725,"##":2726,"##丘":2727,"##✏":2728,"##ژ":2729,"##ሂ":2730,"##田":2731,"##ና":2732,"##科":2733,"##技":2734,"##丰":2735,"##富":2736,"##":2737,"##":2738,"##力":2739,"##切":2740,"##頼":2741,"##除":2742,"##通":2743,"##汉":2744,"##せ":2745,"##臭":2746,"##چ":2747,"##臼":2748,"##偵":2749,"##子":2750,"##錯":2751,"##處":2752,"##項":2753,"##議":2754,"##较":2755,"##異":2756,"##前":2757,"##討":2758,"##埋":2759,"##负":2760,"##责":2761,"##预":2762,"##测":2763,"##靠":2764,"##评":2765,"##证":2766,"##ユ":2767,"##扱":2768,"##⊂":2769,"##辅":2770,"##助":2771,"##袋":2772,"##視":2773,"##点":2774,"##轮":2775,"##回":2776,"##⇔":2777,"##":2778,"##":2779,"##⊗":2780,"##":2781,"##⊃":2782,"##械":2783,"##訳":2784,"##オ":2785,"##ィ":2786,"##ሽ":2787,"##貫":2788,"##認":2789,"##报":2790,"##告":2791,"##":2792,"##称":2793,"##⇡":2794,"##思":2795,"##后":2796,"##采":2797,"##短":2798,"##步":2799,"##加":2800,"##帮":2801,"##快":2802,"##速":2803,"##意":2804,"##ض":2805,"##ʼ":2806,"##":2807,"##ሳ":2808,"##ቷ":2809,"##去":2810,"##根":2811,"##瓶":2812,"##颈":2813,"##":2814,"##无":2815,"##ث":2816,"##連":2817,"##続":2818,"##监":2819,"##督":2820,"##十":2821,"##決":2822,"##ዴ":2823,"##ے":2824,"##↔":2825,"##欠":2826,"##够":2827,"##万":2828,"##限":2829,"##百":2830,"##∣":2831,"##識":2832,"##別":2833,"##着":2834,"##眼":2835,"##继":2836,"##续":2837,"##否":2838,"##好":2839,"##地":2840,"##论":2841,"##础":2842,"##迭":2843,"##個":2844,"##頑":2845,"##健":2846,"##増":2847,"##ℝ":2848,"##ᆾ":2849,"##ᆷ":2850,"##想":2851,"##ቢ":2852,"##長":2853,"##✓":2854,"##困":2855,"##互":2856,"##ɨ":2857,"##汚":2858,"##染":2859,"##物":2860,"##観":2861,"##":2862,"##":2863,"##ሰ":2864,"##ብ":2865,"##む":2866,"##晚":2867,"##临":2868,"##最":2869,"##挑":2870,"##战":2871,"##協":2872,"##學":2873,"##很":2874,"##價":2875,"##值":2876,"##ᄄ":2877,"##ቋ":2878,"##∧":2879,"##⌃":2880,"##规":2881,"##環":2882,"##":2883,"##三":2884,"##番":2885,"##ね":2886,"##葉":2887,"##ጨ":2888,"##⇠":2889,"##䉂":2890,"##擌":2891,"##奒":2892,"##隙":2893,"##ቅ":2894,"##ዘ":2895,"##直":2896,"##接":2897,"##⇑":2898,"##ህ":2899,"##ቦ":2900,"##ው":2901,"##略":2902,"##ち":2903,"##":2904,"##∊":2905,"##写":2906,"##見":2907,"##繰":2908,"##返":2909,"##ጽ":2910,"##ሁ":2911,"##处":2912,"##ከ":2913,"##ኝ":2914,"##":2915,"##假":2916,"##共":2917,"##℄":2918,"##⊓":2919,"##沟":2920,"##全":2921,"##ろ":2922,"##ん":2923,"##範":2924,"##囲":2925,"##円":2926,"##滑":2927,"##灵":2928,"##奖":2929,"##」":2930,"##崎":2931,"##潤":2932,"##郎":2933,"##ገ":2934,"##ሃ":2935,"##ዱ":2936,"##":2937,"##ኗ":2938,"##傍":2939,"##ባ":2940,"##ቸ":2941,"##⌝":2942,"##粉":2943,"##症":2944,"##側":2945,"##⌧":2946,"##।":2947,"##擾":2948,"##對":2949,"##幫":2950,"##潔":2951,"##⇢":2952,"##ጋ":2953,"##心":2954,"##∕":2955,"##䀓":2956,"##惼":2957,"##扩":2958,"##充":2959,"##達":2960,"##围":2961,"##绕":2962,"##象":2963,"##":2964,"##來":2965,"##❙":2966,"##❆":2967,"##✡":2968,"##❪":2969,"##":2970,"##味":2971,"##即":2972,"##座":2973,"##細":2974,"##記":2975,"##録":2976,"##坦":2977,"##福":2978,"##ጭ":2979,"##✦":2980,"##终":2981,"##筛":2982,"##选":2983,"##":2984,"##ጀ":2985,"##ሪ":2986,"##增":2987,"##强":2988,"##↑":2989,"##⟩":2990,"##促":2991,"##堆":2992,"##融":2993,"##美":2994,"##他":2995,"##ᇁ":2996,"##⅔":2997,"##没":2998,"##干":2999,"##况":3000,"##产":3001,"##歧":3002,"##従":3003,"##純":3004,"##扰":3005,"##ャ":3006,"##遺":3007,"##伝":3008,"##陀":3009,"##派":3010,"##管":3011,"##ጉ":3012,"##≺":3013,"##何":3014,"##完":3015,"##►":3016,"##頭":3017,"##水":3018,"##求":3019,"##":3020,"##":3021,"##周":3022,"##病":3023,"##母":3024,"##ℛ":3025,"##規":3026,"##元":3027,"##将":3028,"##整":3029,"##便":3030,"##普":3031,"##変":3032,"##實":3033,"##驗":3034,"##資":3035,"##待":3036,"##遇":3037,"##概":3038,"##输":3039,"##燥":3040,"##肌":3041,"##ہ":3042,"##ك":3043,"##們":3044,"##陈":3045,"##反":3046,"##ኮ":3047,"##ፒ":3048,"##ሱ":3049,"##後":3050,"##应":3051,"##节":3052,"##活":3053,"##影":3054,"##響":3055,"##憶":3056,"##査":3057,"##℘":3058,"##ᆮ":3059,"##":3060,"##":3061,"##ሞ":3062,"##減":3063,"##効":3064,"##交":3065,"##官":3066,"##ذ":3067,"##邑":3068,"##起":3069,"##未":3070,"##几":3071,"##年":3072,"##抑":3073,"##ᆻ":3074,"##歯":3075,"##师":3076,"##傅":3077,"##途":3078,"##召":3079,"##校":3080,"##違":3081,"##织":3082,"##疑":3083,"##ℜ":3084,"##⋆":3085,"##四":3086,"##容":3087,"##易":3088,"##አ":3089,"##顯":3090,"##義":3091,"##膚":3092,"##察":3093,"##另":3094,"##ጓ":3095,"##ሜ":3096,"##ካ":3097,"##ቱ":3098,"##传":3099,"##⎩":3100,"##参":3101,"##顕":3102,"##会":3103,"##♦":3104,"##":3105,"##⎜":3106,"##做":3107,"##段":3108,"##安":3109,"##":3110,"##⇐":3111,"##绍":3112,"##●":3113,"##酸":3114,"##脂":3115,"##":3116,"##记":3117,"##局":3118,"##ዚ":3119,"##ዓ":3120,"##调":3121,"##":3122,"##":3123,"##≫":3124,"##姆":3125,"##ሌ":3126,"##":3127,"##虑":3128,"##策":3129,"##音":3130,"##滤":3131,"##掉":3132,"##‐":3133,"##ጊ":3134,"##":3135,"##":3136,"##留":3137,"##満":3138,"##ミ":3139,"##↓":3140,"##野":3141,"##少":3142,"##ሸ":3143,"##ጎ":3144,"##📲":3145,"##😃":3146,"##置":3147,"##ホ":3148,"##騎":3149,"##悶":3150,"##⁄":3151,"##詳":3152,"##括":3153,"##ti":3154,"th":3155,"##on":3156,"##er":3157,"##in":3158,"##es":3159,"the":3160,"##or":3161,"##en":3162,"##al":3163,"##ed":3164,"##tion":3165,"##at":3166,"in":3167,"of":3168,"##ing":3169,"an":3170,"##ro":3171,"##an":3172,"##ar":3173,"##it":3174,"##is":3175,"##ic":3176,"##ation":3177,"##ent":3178,"##ec":3179,"and":3180,"##el":3181,"to":3182,"##as":3183,"##et":3184,"##ur":3185,"##le":3186,"##ac":3187,"##om":3188,"##st":3189,"pro":3190,"for":3191,"##ul":3192,"con":3193,"##re":3194,"##od":3195,"is":3196,"##em":3197,"##ly":3198,"we":3199,"##ith":3200,"##im":3201,"##ve":3202,"on":3203,"##ce":3204,"##ts":3205,"##am":3206,"ex":3207,"##ut":3208,"st":3209,"##ow":3210,"re":3211,"##si":3212,"##per":3213,"##ch":3214,"##tic":3215,"com":3216,"that":3217,"al":3218,"us":3219,"##ig":3220,"##ol":3221,"##ab":3222,"##pp":3223,"##il":3224,"##ot":3225,"with":3226,"##ear":3227,"##ate":3228,"as":3229,"##os":3230,"wh":3231,"##ri":3232,"this":3233,"##ter":3234,"##ir":3235,"##tin":3236,"##ain":3237,"##ver":3238,"##for":3239,"##us":3240,"##res":3241,"##ge":3242,"be":3243,"su":3244,"app":3245,"comp":3246,"mod":3247,"##ity":3248,"##ting":3249,"##un":3250,"##id":3251,"are":3252,"im":3253,"##ect":3254,"##ff":3255,"##form":3256,"##iz":3257,"res":3258,"model":3259,"##um":3260,"by":3261,"##ach":3262,"tr":3263,"##ap":3264,"##tive":3265,"##uc":3266,"##ork":3267,"de":3268,"##qu":3269,"##ob":3270,"sy":3271,"##oc":3272,"sp":3273,"##ble":3274,"bas":3275,"ne":3276,"ac":3277,"##ess":3278,"dat":3279,"sh":3280,"##ents":3281,"cl":3282,"met":3283,"en":3284,"##pl":3285,"cont":3286,"##ations":3287,"un":3288,"##og":3289,"##ers":3290,"##ure":3291,"can":3292,"dis":3293,"##str":3294,"##vel":3295,"##ally":3296,"or":3297,"##ning":3298,"##hod":3299,"based":3300,"method":3301,"##etw":3302,"##rom":3303,"pa":3304,"appro":3305,"##gor":3306,"##stem":3307,"##ad":3308,"system":3309,"par":3310,"##pos":3311,"from":3312,"rob":3313,"##ich":3314,"lear":3315,"##ated":3316,"##tions":3317,"##tim":3318,"int":3319,"##der":3320,"##ithm":3321,"ob":3322,"##ance":3323,"algor":3324,"algorithm":3325,"which":3326,"ad":3327,"##th":3328,"data":3329,"##ment":3330,"##ence":3331,"##ay":3332,"propos":3333,"##ag":3334,"rec":3335,"per":3336,"##fic":3337,"des":3338,"##igh":3339,"##resent":3340,"our":3341,"##able":3342,"##blem":3343,"ch":3344,"##ant":3345,"problem":3346,"imp":3347,"paper":3348,"##age":3349,"pr":3350,"##op":3351,"approach":3352,"##ous":3353,"di":3354,"it":3355,"inter":3356,"##ies":3357,"##ni":3358,"using":3359,"se":3360,"learning":3361,"##and":3362,"mo":3363,"##ual":3364,"gen":3365,"resul":3366,"##ud":3367,"##ine":3368,"str":3369,"##ere":3370,"##ical":3371,"ar":3372,"##sion":3373,"fe":3374,"##ari":3375,"##ore":3376,"eff":3377,"show":3378,"at":3379,"##ram":3380,"sim":3381,"gener":3382,"##all":3383,"co":3384,"##etwork":3385,"rel":3386,"network":3387,"clas":3388,"pl":3389,"##ech":3390,"ev":3391,"##rib":3392,"exper":3393,"mul":3394,"po":3395,"sc":3396,"##end":3397,"##uct":3398,"##ust":3399,"##ion":3400,"man":3401,"perform":3402,"##rol":3403,"##ex":3404,"##und":3405,"multi":3406,"op":3407,"##ization":3408,"rep":3409,"tim":3410,"##ie":3411,"##ace":3412,"control":3413,"##act":3414,"##abil":3415,"##enc":3416,"diff":3417,"results":3418,"##cess":3419,"##ip":3420,"set":3421,"##iv":3422,"##formation":3423,"##sis":3424,"no":3425,"##ens":3426,"##ection":3427,"##ors":3428,"##est":3429,"##ort":3430,"##ures":3431,"##ack":3432,"##ans":3433,"inc":3434,"ma":3435,"tw":3436,"qu":3437,"##ign":3438,"##ial":3439,"##ese":3440,"ha":3441,"##ple":3442,"le":3443,"##earch":3444,"##enti":3445,"experim":3446,"such":3447,"##alu":3448,"time":3449,"##ative":3450,"det":3451,"##ati":3452,"obj":3453,"anal":3454,"information":3455,"all":3456,"appl":3457,"##ural":3458,"##ask":3459,"##oth":3460,"ext":3461,"gr":3462,"##ell":3463,"two":3464,"how":3465,"acc":3466,"these":3467,"ind":3468,"##ard":3469,"has":3470,"##ution":3471,"es":3472,"analy":3473,"task":3474,"present":3475,"feat":3476,"##vi":3477,"have":3478,"proposed":3479,"new":3480,"##now":3481,"##erm":3482,"##ties":3483,"robot":3484,"vari":3485,"constr":3486,"sol":3487,"##ide":3488,"not":3489,"##ary":3490,"comput":3491,"me":3492,"prov":3493,"differ":3494,"form":3495,"optim":3496,"##ating":3497,"##fer":3498,"##unc":3499,"##ug":3500,"loc":3501,"##ang":3502,"##ular":3503,"##so":3504,"em":3505,"disc":3506,"use":3507,"##se":3508,"aut":3509,"##ient":3510,"used":3511,"real":3512,"tech":3513,"over":3514,"dist":3515,"models":3516,"##ves":3517,"##ates":3518,"ag":3519,"sub":3520,"##ord":3521,"##our":3522,"##tain":3523,"process":3524,"##ory":3525,"know":3526,"ab":3527,"##atic":3528,"classi":3529,"more":3530,"##onstr":3531,"work":3532,"struct":3533,"##ep":3534,"##ric":3535,"##ile":3536,"##ree":3537,"cor":3538,"##ition":3539,"mat":3540,"high":3541,"func":3542,"performance":3543,"fin":3544,"##yp":3545,"also":3546,"##istic":3547,"represent":3548,"methods":3549,"##ability":3550,"out":3551,"##ase":3552,"##fication":3553,"##een":3554,"expl":3555,"vis":3556,"applic":3557,"estim":3558,"reg":3559,"betw":3560,"between":3561,"##aph":3562,"non":3563,"trans":3564,"desc":3565,"##ther":3566,"one":3567,"##ext":3568,"under":3569,"dem":3570,"pat":3571,"its":3572,"##ugh":3573,"systems":3574,"##oll":3575,"##ied":3576,"dec":3577,"##olog":3578,"ass":3579,"##tical":3580,"##ke":3581,"##yn":3582,"stud":3583,"design":3584,"hum":3585,"##ages":3586,"##led":3587,"fram":3588,"plan":3589,"##if":3590,"robo":3591,"##ects":3592,"num":3593,"add":3594,"devel":3595,"image":3596,"##ving":3597,"pre":3598,"different":3599,"##out":3600,"comm":3601,"effic":3602,"##ely":3603,"their":3604,"##king":3605,"##ome":3606,"lar":3607,"propose":3608,"develop":3609,"##lex":3610,"lin":3611,"been":3612,"##ound":3613,"##edic":3614,"##xim":3615,"algorithms":3616,"min":3617,"impro":3618,"spec":3619,"##ynam":3620,"search":3621,"##ong":3622,"both":3623,"each":3624,"frame":3625,"##ber":3626,"dynam":3627,"##int":3628,"sens":3629,"constrain":3630,"sel":3631,"id":3632,"demonstr":3633,"##ized":3634,"ver":3635,"neural":3636,"compar":3637,"sam":3638,"predic":3639,"human":3640,"##niqu":3641,"##tern":3642,"evalu":3643,"techniqu":3644,"analysis":3645,").":3646,"##ding":3647,"sem":3648,"##ight":3649,"train":3650,"##les":3651,"##tiv":3652,"general":3653,"into":3654,"dynamic":3655,"ph":3656,"fir":3657,"exp":3658,"state":3659,"networks":3660,"##ail":3661,"##ast":3662,"##work":3663,"##ement":3664,"##ize":3665,"when":3666,"##ved":3667,"##ational":3668,"##anc":3669,"pos":3670,"##pt":3671,"##ue":3672,"framework":3673,"large":3674,"##amet":3675,"##duc":3676,"first":3677,"experiment":3678,"accur":3679,"simul":3680,"class":3681,"##ension":3682,"##ill":3683,"##ective":3684,"local":3685,"other":3686,"graph":3687,"order":3688,"env":3689,"features":3690,"##aus":3691,"than":3692,"##ision":3693,"att":3694,"##por":3695,"dom":3696,"requ":3697,"function":3698,"##iron":3699,"##ib":3700,"environ":3701,"##ledge":3702,"where":3703,"number":3704,"knowledge":3705,"##her":3706,"##action":3707,"distrib":3708,"problems":3709,"meas":3710,"well":3711,"motion":3712,"user":3713,"object":3714,"##ments":3715,"##ress":3716,"space":3717,"##ency":3718,"red":3719,"dep":3720,"only":3721,"##ise":3722,"go":3723,"recog":3724,"efficient":3725,"paramet":3726,"complex":3727,"##iew":3728,"sm":3729,"typ":3730,"experiments":3731,"##ev":3732,"up":3733,"novel":3734,"cap":3735,"but":3736,"##put":3737,"prog":3738,"fi":3739,"##ful":3740,"comb":3741,"exam":3742,"##ences":3743,"##ser":3744,"consi":3745,"##ever":3746,"##angu":3747,"ran":3748,"##ier":3749,"some":3750,"do":3751,"cond":3752,"##lement":3753,"domain":3754,"giv":3755,"langu":3756,"autom":3757,"##ist":3758,"),":3759,"##ond":3760,"##ets":3761,"prob":3762,"##ia":3763,"intro":3764,"am":3765,"##urr":3766,"however":3767,"##antic":3768,"gro":3769,"log":3770,"learn":3771,"semantic":3772,"describ":3773,"##eg":3774,"##sive":3775,"term":3776,"scal":3777,"so":3778,"coll":3779,"##over":3780,"sur":3781,"many":3782,"pres":3783,"##sition":3784,"classification":3785,"##ected":3786,"clust":3787,"##ark":3788,"##ator":3789,"partic":3790,"quer":3791,"then":3792,"##ential":3793,"ser":3794,"consider":3795,"##ering":3796,"##ha":3797,"level":3798,"##uce":3799,"there":3800,"##vely":3801,"##rough":3802,"##atis":3803,"20":3804,"syn":3805,"##acy":3806,"structure":3807,"def":3808,"ach":3809,"visual":3810,"most":3811,"allow":3812,"achie":3813,"study":3814,"##lu":3815,"er":3816,"lab":3817,"hand":3818,"while":3819,"##lud":3820,"through":3821,"supp":3822,"program":3823,"combin":3824,"##ty":3825,"adap":3826,"dir":3827,"##are":3828,"##eld":3829,"training":3830,"beha":3831,"multiple":3832,"provid":3833,"linear":3834,"images":3835,"feature":3836,"##ism":3837,"identi":3838,"given":3839,"datas":3840,"demonstrate":3841,"##nition":3842,"speci":3843,"##eng":3844,"applications":3845,"##ite":3846,"sch":3847,"he":3848,"they":3849,"behavi":3850,"oper":3851,"research":3852,"tasks":3853,"##ference":3854,"valu":3855,"text":3856,"sig":3857,"experimental":3858,"##imension":3859,"sequ":3860,"##up":3861,"##ish":3862,"sever":3863,"recognition":3864,"import":3865,"extr":3866,"##ness":3867,"av":3868,"mach":3869,"top":3870,"el":3871,"##arg":3872,"li":3873,"track":3874,"pattern":3875,"##ene":3876,"##ose":3877,"simil":3878,"robots":3879,"signi":3880,"word":3881,"##ities":3882,"techniques":3883,"low":3884,"language":3885,"resp":3886,"##vis":3887,"implement":3888,"##echan":3889,"robust":3890,"sing":3891,"bound":3892,"exis":3893,"signific":3894,"err":3895,"proper":3896,"several":3897,"ret":3898,"##ld":3899,"wor":3900,"##ject":3901,"dimension":3902,"minim":3903,"##vers":3904,"incre":3905,"obtain":3906,"planning":3907,"##til":3908,"##ipul":3909,"inst":3910,"approxim":3911,"optimal":3912,"includ":3913,"representation":3914,"obser":3915,"##line":3916,"##ateg":3917,"##ward":3918,"mechan":3919,"strateg":3920,"nat":3921,"objects":3922,"##urrent":3923,"##uction":3924,"##ility":3925,"##ases":3926,"detection":3927,"##sp":3928,"provide":3929,"char":3930,"integ":3931,"approaches":3932,"##uring":3933,"similar":3934,"##uld":3935,"##ak":3936,"significant":3937,"label":3938,"equ":3939,"##ology":3940,"##ples":3941,"view":3942,"specific":3943,"manipul":3944,"##its":3945,"##fy":3946,"web":3947,"may":3948,"##als":3949,"tem":3950,"##ired":3951,"tra":3952,"super":3953,"##av":3954,"##cept":3955,"##acter":3956,"##sible":3957,"##ern":3958,"##vious":3959,"corr":3960,"environment":3961,"inv":3962,"existing":3963,"character":3964,"soc":3965,"##vic":3966,"users":3967,"consis":3968,"three":3969,"depend":3970,"##ason":3971,"##eness":3972,"chall":3973,"accuracy":3974,"##ted":3975,"seg":3976,"need":3977,"##itional":3978,"##ention":3979,"constraints":3980,"##utions":3981,"integr":3982,"was":3983,"world":3984,"bec":3985,"bu":3986,"previous":3987,"##izing":3988,"##olution":3989,"##ret":3990,"sec":3991,"about":3992,"context":3993,".,":3994,"fur":3995,"recent":3996,"jo":3997,"##ertain":3998,"##ption":3999,"important":4000,"##ression":4001,"robotic":4002,"spe":4003,"optimization":4004,"##ten":4005,"art":4006,"##ix":4007,"fact":4008,"pri":4009,"##vised":4010,"cr":4011,"ro":4012,"single":4013,"main":4014,"reason":4015,"estimation":4016,"doc":4017,"qual":4018,"lim":4019,"gu":4020,"conf":4021,"case":4022,"##duce":4023,"##oun":4024,"automatic":4025,"##ros":4026,"mob":4027,"any":4028,"input":4029,"pers":4030,"effec":4031,"formul":4032,"machine":4033,"commun":4034,"call":4035,"map":4036,"##tial":4037,"##ian":4038,"particular":4039,"cost":4040,"##onom":4041,"match":4042,"cam":4043,"them":4044,"##cc":4045,"##omet":4046,"##ances":4047,"docum":4048,"simple":4049,"##mm":4050,"##aces":4051,"ke":4052,"##ons":4053,"decision":4054,"3d":4055,"query":4056,"##face":4057,"address":4058,"determ":4059,"shap":4060,"way":4061,"##ables":4062,"clustering":4063,"will":4064,"##su":4065,"support":4066,"point":4067,"##ints":4068,"buil":4069,"##lin":4070,"compl":4071,"##par":4072,"19":4073,"mechanism":4074,"##ft":4075,"adv":4076,"act":4077,"relations":4078,"field":4079,"targ":4080,"social":4081,"logic":4082,"der":4083,"fl":4084,"##ire":4085,"parameters":4086,"gl":4087,"test":4088,"##ules":4089,"##etter":4090,"eng":4091,"classif":4092,"presented":4093,"path":4094,"bi":4095,"foc":4096,"##ive":4097,"scale":4098,"##oid":4099,"if":4100,"mobile":4101,"retri":4102,"##ra":4103,"tracking":4104,"solution":4105,"schem":4106,"##iter":4107,"camer":4108,"ge":4109,"assum":4110,"very":4111,"agent":4112,"defin":4113,"##imin":4114,"##ically":4115,"mem":4116,"segment":4117,"application":4118,"behavior":4119,"maxim":4120,"##ub":4121,"without":4122,"small":4123,"##ector":4124,"##ators":4125,"conc":4126,"##poral":4127,"unc":4128,"lo":4129,"focus":4130,"dimensional":4131,"fil":4132,"evaluation":4133,"developed":4134,"vide":4135,"##ces":4136,"controll":4137,"##oy":4138,"##pping":4139,"##ured":4140,"##tig":4141,"probabil":4142,"inf":4143,"modeling":4144,"discus":4145,"online":4146,"sl":4147,"error":4148,"uni":4149,"terms":4150,"##ements":4151,"##erg":4152,"cal":4153,"introduc":4154,"extend":4155,"sets":4156,"sour":4157,"statis":4158,"##not":4159,"technique":4160,"feed":4161,"dri":4162,"functions":4163,"current":4164,"##old":4165,"second":4166,"agents":4167,"better":4168,"arch":4169,"##ross":4170,"compon":4171,"##po":4172,"##ually":4173,"fre":4174,"same":4175,"il":4176,"##ited":4177,"##oci":4178,"possible":4179,"##tively":4180,"computational":4181,"temporal":4182,"stand":4183,"##ron":4184,"prac":4185,"sensor":4186,"sign":4187,"##ware":4188,"properties":4189,"##ade":4190,"ed":4191,"target":4192,"natural":4193,"##omm":4194,"##ower":4195,"##resp":4196,"##anti":4197,"bo":4198,"spati":4199,"associ":4200,"applied":4201,"group":4202,"lat":4203,"challeng":4204,"rand":4205,"mon":4206,"inves":4207,"allows":4208,"presents":4209,"various":4210,"investig":4211,"gam":4212,"filter":4213,"random":4214,"interac":4215,"known":4216,"datasets":4217,"##orm":4218,"corresp":4219,"hy":4220,"##ould":4221,"##ming":4222,"transl":4223,"##etic":4224,"joint":4225,"often":4226,"selection":4227,"spar":4228,"processing":4229,"prediction":4230,"called":4231,"glob":4232,"rem":4233,"within":4234,"occ":4235,"distribution":4236,"enc":4237,"theory":4238,"##ploy":4239,"tool":4240,"archit":4241,"##tinu":4242,"##ause":4243,"mark":4244,"descri":4245,"avail":4246,"conn":4247,"##hic":4248,"architect":4249,"##ult":4250,"val":4251,"key":4252,"end":4253,"##eval":4254,"conv":4255,"quality":4256,"util":4257,"##ough":4258,"##ov":4259,"step":4260,"##back":4261,"emp":4262,"##ule":4263,"##ling":4264,"compared":4265,"##lish":4266,"##tiveness":4267,"improve":4268,"complexity":4269,"##ayes":4270,"##ernel":4271,"conver":4272,"computer":4273,"power":4274,"patterns":4275,"retrieval":4276,"shown":4277,"kernel":4278,"ta":4279,"##astic":4280,"##ible":4281,"##ensive":4282,"underst":4283,"##ks":4284,"bayes":4285,"discuss":4286,"##tivity":4287,"common":4288,"vision":4289,"##rid":4290,"##arch":4291,"##uted":4292,"suc":4293,"explo":4294,"require":4295,"inference":4296,"##ry":4297,"kin":4298,"##rix":4299,"##epend":4300,"##ified":4301,"##inal":4302,"##ass":4303,"##itions":4304,"find":4305,"##ced":4306,"theore":4307,"standard":4308,"traject":4309,"##ner":4310,"matrix":4311,"introduce":4312,"effective":4313,"position":4314,"##bed":4315,"##ges":4316,"via":4317,"##hip":4318,"rules":4319,"result":4320,"even":4321,"et":4322,"##olic":4323,"relev":4324,"effectiveness":4325,"during":4326,"pot":4327,"valid":4328,"##ffic":4329,"thus":4330,"interaction":4331,"concept":4332,"provides":4333,"describe":4334,"lead":4335,"deep":4336,"were":4337,"ref":4338,"##ines":4339,"direct":4340,"range":4341,"shape":4342,"foll":4343,"##icit":4344,"bel":4345,"ve":4346,"capt":4347,"recomm":4348,"hier":4349,"probabilistic":4350,"back":4351,"points":4352,"prot":4353,"##one":4354,"region":4355,"car":4356,"analyz":4357,"##uch":4358,"hierarch":4359,"continu":4360,"datab":4361,"constraint":4362,"available":4363,"like":4364,"ful":4365,"tree":4366,"200":4367,"produc":4368,"computation":4369,"##ps":4370,"##ane":4371,"independ":4372,"success":4373,"obtained":4374,"due":4375,"able":4376,"best":4377,"camera":4378,"fac":4379,"br":4380,"video":4381,"part":4382,"example":4383,"pe":4384,"follow":4385,"matching":4386,"global":4387,"consist":4388,"segmentation":4389,"autonom":4390,"geomet":4391,"##inc":4392,"cre":4393,"techn":4394,"##idual":4395,"##ys":4396,"understand":4397,"adaptive":4398,"norm":4399,"##ral":4400,"reasoning":4401,"##ount":4402,"##lying":4403,"lay":4404,"##onal":4405,"cent":4406,"##iency":4407,"prior":4408,"##perform":4409,"ques":4410,"topic":4411,"including":4412,"enti":4413,"programming":4414,"simulation":4415,"interp":4416,"strategy":4417,"explor":4418,"uncertain":4419,"uses":4420,"force":4421,"vehic":4422,"outperform":4423,"fu":4424,"bl":4425,"dynamics":4426,"cons":4427,"complet":4428,"nod":4429,"indiv":4430,"parall":4431,"##ological":4432,"prec":4433,"pair":4434,"diffic":4435,"identify":4436,"##ether":4437,"feedback":4438,"scen":4439,"##sing":4440,"201":4441,"##ays":4442,"further":4443,"del":4444,"deriv":4445,"##ately":4446,"tre":4447,"among":4448,"environments":4449,"proced":4450,"parallel":4451,"##ections":4452,"##mark":4453,"chang":4454,"addition":4455,"##ematic":4456,"##uting":4457,"##nn":4458,"action":4459,"##round":4460,"##fore":4461,"related":4462,"##ecting":4463,"##pling":4464,"vector":4465,"goal":4466,"finally":4467,"quanti":4468,"##ily":4469,"##sig":4470,"embed":4471,"mic":4472,"##sw":4473,"autonomous":4474,"nav":4475,"bayesian":4476,"ini":4477,"examples":4478,"significantly":4479,"empir":4480,"mean":4481,"observ":4482,"discover":4483,"##ategor":4484,"trad":4485,"##rop":4486,"##ood":4487,"reduc":4488,"##agn":4489,"size":4490,"soft":4491,"distributed":4492,"##linear":4493,"sit":4494,"individual":4495,"pop":4496,"communic":4497,"make":4498,"mining":4499,"navig":4500,"architecture":4501,"fast":4502,"speed":4503,"invol":4504,"##ibr":4505,"answ":4506,"determin":4507,"finding":4508,"##ience":4509,"synth":4510,"##ety":4511,"achieve":4512,"categor":4513,"##vice":4514,"those":4515,"sin":4516,"conditions":4517,"##lic":4518,"scheme":4519,"hard":4520,"org":4521,"because":4522,"long":4523,"similarity":4524,"dataset":4525,"med":4526,"value":4527,"found":4528,"##ently":4529,"satis":4530,"self":4531,"deg":4532,"contain":4533,"##ories":4534,"distance":4535,"incor":4536,"setting":4537,"##ribut":4538,"probability":4539,"princ":4540,"type":4541,"neur":4542,"parameter":4543,"spatial":4544,"##istics":4545,"frequ":4546,"useful":4547,"chan":4548,"metric":4549,"col":4550,"##ensi":4551,"supervised":4552,"##ings":4553,"##vement":4554,"sug":4555,"nonlinear":4556,"sent":4557,"surface":4558,"designed":4559,"##oper":4560,"hel":4561,"good":4562,"sequence":4563,"continuous":4564,"sk":4565,"advant":4566,"iter":4567,"noise":4568,"##ising":4569,"types":4570,"relationship":4571,"ori":4572,"##aneous":4573,"##ven":4574,"polic":4575,"clos":4576,"##raph":4577,"pur":4578,"cod":4579,"##ature":4580,"##verage":4581,"##iers":4582,"off":4583,"intell":4584,"potential":4585,"ide":4586,"employ":4587,"gre":4588,"measure":4589,"##ms":4590,"grad":4591,"##art":4592,"##rimin":4593,"representations":4594,"development":4595,"##ench":4596,"statistical":4597,"evaluate":4598,"eas":4599,"##izes":4600,"since":4601,"discrimin":4602,"##row":4603,"actu":4604,"weight":4605,"post":4606,"orient":4607,"altern":4608,"intellig":4609,"variables":4610,"queries":4611,"formal":4612,"controller":4613,"##of":4614,"recommend":4615,"does":4616,"generation":4617,"te":4618,"nam":4619,"structures":4620,"words":4621,"output":4622,"implementation":4623,"##esting":4624,"subs":4625,"##ucted":4626,"memory":4627,"mapping":4628,"document":4629,"accurate":4630,"rest":4631,"regular":4632,"requir":4633,"solutions":4634,"##vices":4635,"automatically":4636,"##ify":4637,"active":4638,"incorpor":4639,"measur":4640,"domains":4641,"##uts":4642,"sparse":4643,"ont":4644,"phys":4645,"arti":4646,"flex":4647,"resour":4648,"content":4649,"actions":4650,"face":4651,"cho":4652,"increas":4653,"translation":4654,"much":4655,"##ants":4656,"belie":4657,"##00":4658,"rule":4659,"proj":4660,"correl":4661,"pose":4662,"interpret":4663,"rate":4664,"##ordin":4665,"##taneous":4666,"interest":4667,"asp":4668,"efficiency":4669,"extract":4670,"solving":4671,"sto":4672,"orig":4673,"annot":4674,"source":4675,"attention":4676,"play":4677,"organ":4678,"scene":4679,"##ead":4680,"##view":4681,"sw":4682,"bod":4683,"ens":4684,"##ights":4685,"##pts":4686,"free":4687,"aim":4688,"pub":4689,"##tit":4690,"generated":4691,"bin":4692,"factor":4693,"mix":4694,"##igur":4695,"coordin":4696,"regression":4697,"poly":4698,"##gence":4699,"contr":4700,"##ength":4701,"prop":4702,"appear":4703,"sa":4704,"heur":4705,"solve":4706,"here":4707,"##ior":4708,"encod":4709,"##verse":4710,"cur":4711,"reconstr":4712,"strategies":4713,"what":4714,"neg":4715,"initial":4716,"item":4717,"values":4718,"avoid":4719,"run":4720,"being":4721,"199":4722,"arg":4723,"af":4724,"##ople":4725,"##cul":4726,"tri":4727,"estimate":4728,"toward":4729,"people":4730,"adapt":4731,"abstr":4732,"theoretical":4733,"traditional":4734,"##ficial":4735,"classifier":4736,"parti":4737,"series":4738,"bench":4739,"link":4740,"exec":4741,"approximation":4742,"indic":4743,"simultaneous":4744,"cases":4745,"studies":4746,"wal":4747,"hierarchical":4748,"dens":4749,"aff":4750,"##aw":4751,"mis":4752,"computing":4753,"stoch":4754,"gram":4755,"numer":4756,"situ":4757,"navigation":4758,"stochastic":4759,"line":4760,"los":4761,"transform":4762,"##que":4763,"comparis":4764,"##kes":4765,"shar":4766,"learned":4767,"##ather":4768,"illu":4769,"challenging":4770,"posi":4771,"sensors":4772,"impl":4773,"localization":4774,"near":4775,"##ph":4776,"separ":4777,"##enting":4778,"artic":4779,"intern":4780,"##ax":4781,"defined":4782,"documents":4783,"making":4784,"extraction":4785,"upd":4786,"##know":4787,"##ick":4788,"should":4789,"##ecess":4790,"understanding":4791,"illustr":4792,"successful":4793,"##sian":4794,"##zz":4795,"##abor":4796,"##aging":4797,"sampling":4798,"generate":4799,"ability":4800,"independent":4801,"##ptions":4802,"ranking":4803,"gras":4804,"limited":4805,"shows":4806,"prom":4807,"criter":4808,"##ok":4809,"##ante":4810,"##oring":4811,"##ice":4812,"must":4813,"##man":4814,"##esis":4815,"guar":4816,"who":4817,"gaus":4818,"guarante":4819,"practical":4820,"special":4821,"rank":4822,"communication":4823,"recently":4824,"resolution":4825,"means":4826,"benchmark":4827,"four":4828,"empirical":4829,"components":4830,"resulting":4831,"classes":4832,"implemented":4833,"outperforms":4834,"efficiently":4835,"##ergy":4836,"body":4837,"trajectory":4838,"##position":4839,"attribut":4840,"explicit":4841,"complete":4842,"calcul":4843,"##ger":4844,"database":4845,"depth":4846,"less":4847,"few":4848,"engine":4849,"loss":4850,"lik":4851,"##atively":4852,"fix":4853,"compe":4854,"stability":4855,"procedure":4856,"higher":4857,"fr":4858,"##ably":4859,"prim":4860,"##hood":4861,"tak":4862,"scenari":4863,"##sue":4864,"##ater":4865,"wid":4866,"##known":4867,"changes":4868,"difficult":4869,"##ologies":4870,"open":4871,"##sions":4872,"therefore":4873,"ground":4874,"##ighb":4875,"conve":4876,"##idd":4877,"unl":4878,"enh":4879,"short":4880,"required":4881,"predict":4882,"neighb":4883,"summ":4884,"strong":4885,"##pervised":4886,"elect":4887,"correspond":4888,"##ream":4889,"relevant":4890,"semantics":4891,"across":4892,"ent":4893,"##ither":4894,"##therm":4895,"decom":4896,"event":4897,"performed":4898,"energy":4899,"cross":4900,"game":4901,"##idence":4902,"unknown":4903,"layer":4904,"objective":4905,"necess":4906,"##thermore":4907,"furthermore":4908,"acqu":4909,"respon":4910,"question":4911,"caus":4912,"requires":4913,"##iting":4914,"##gest":4915,"configur":4916,"##irc":4917,"plat":4918,"##rete":4919,"unsu":4920,"certain":4921,"##faces":4922,"##ially":4923,"extension":4924,"##ording":4925,"##fficient":4926,"hyp":4927,"graphs":4928,"detail":4929,"manipulation":4930,"sequences":4931,"highly":4932,"gaussian":4933,"help":4934,"embedding":4935,"processes":4936,"vehicle":4937,"vir":4938,"influ":4939,"cell":4940,"sv":4941,"artificial":4942,"convergence":4943,"could":4944,"##ns":4945,"##ooth":4946,"index":4947,"##ost":4948,"##brid":4949,"uncertainty":4950,"variable":4951,"micro":4952,"activity":4953,"platform":4954,"directly":4955,"fuzz":4956,"].":4957,"##aster":4958,"markov":4959,"bene":4960,"improved":4961,"ga":4962,"##ds":4963,"component":4964,"##vements":4965,"##reg":4966,"unsupervised":4967,"belief":4968,"recover":4969,"basis":4970,"##ulation":4971,"original":4972,"correct":4973,"satisf":4974,"change":4975,"hypoth":4976,"considered":4977,"gradient":4978,"made":4979,"latent":4980,"est":4981,"fuzzy":4982,"propag":4983,"##pr":4984,"simpl":4985,"kinematic":4986,"report":4987,"insp":4988,"##sc":4989,"physical":4990,"structured":4991,"measures":4992,"flow":4993,"##pri":4994,"hybrid":4995,"##ograph":4996,"grasp":4997,"lex":4998,"moreover":4999,"variety":5000,"location":5001,"introduced":5002,"combination":5003,"building":5004,"personal":5005,"interface":5006,"reduce":5007,"increasing":5008,"##ains":5009,"##onding":5010,"derived":5011,"gramm":5012,"contrib":5013,"provided":5014,"respect":5015,"collabor":5016,"##forc":5017,"##sequ":5018,"nodes":5019,"virt":5020,"sample":5021,"extensive":5022,"limit":5023,"##ectors":5024,"##pec":5025,"achieved":5026,"recogn":5027,"approximate":5028,"makes":5029,"repres":5030,"liter":5031,"##tically":5032,"corresponding":5033,"##ike":5034,"tag":5035,"contact":5036,"apply":5037,"describes":5038,"##otyp":5039,"maximum":5040,"assig":5041,"compare":5042,"conce":5043,"regions":5044,"extended":5045,"##ield":5046,"fail":5047,"appropri":5048,"##ind":5049,"##sist":5050,"normal":5051,"prefer":5052,"according":5053,"##ins":5054,"##bit":5055,"ever":5056,"##red":5057,"associated":5058,"rein":5059,"deal":5060,"policy":5061,"transfer":5062,"relative":5063,"smooth":5064,"maj":5065,"classifiers":5066,"popular":5067,"trained":5068,"identification":5069,"stream":5070,"described":5071,"convex":5072,"##ibility":5073,"major":5074,"align":5075,"reli":5076,"investigate":5077,"synt":5078,"following":5079,"interactions":5080,"perce":5081,"capture":5082,"##igu":5083,"states":5084,"works":5085,"demonstrated":5086,"auth":5087,"##erial":5088,"math":5089,"obst":5090,"issu":5091,"##emb":5092,"either":5093,"##otion":5094,"driven":5095,"account":5096,"##anced":5097,"obstac":5098,"tran":5099,"read":5100,"##pled":5101,"errors":5102,"description":5103,"##sib":5104,"##ablish":5105,"##pus":5106,"manipulator":5107,"fut":5108,"evaluated":5109,"after":5110,"comparison":5111,"lower":5112,"geometric":5113,"base":5114,"guid":5115,"##ental":5116,"robotics":5117,"establish":5118,"role":5119,"displ":5120,"reduction":5121,"##ests":5122,"binary":5123,"expression":5124,"##till":5125,"wide":5126,"princip":5127,"##pose":5128,"future":5129,"observed":5130,"ling":5131,"##ality":5132,"fa":5133,"restric":5134,"underlying":5135,"##hib":5136,"##bigu":5137,"speech":5138,"##puts":5139,"discrete":5140,"moving":5141,"again":5142,"generalization":5143,"##wise":5144,"stere":5145,"circ":5146,"##ics":5147,"coun":5148,"invari":5149,"samples":5150,"arm":5151,"rot":5152,"10":5153,"suit":5154,"##idden":5155,"competi":5156,"cri":5157,"events":5158,"instance":5159,"instances":5160,"effect":5161,"##ogene":5162,"sensi":5163,"issues":5164,"ii":5165,"specifically":5166,"virtual":5167,"calibr":5168,"##forcement":5169,"flexible":5170,"ir":5171,"concepts":5172,"distributions":5173,"prototyp":5174,"##tice":5175,"issue":5176,"arbit":5177,"prof":5178,"proof":5179,"towards":5180,"arbitr":5181,"signal":5182,"sensing":5183,"languages":5184,"area":5185,"infer":5186,"maps":5187,"year":5188,"vary":5189,"characteristics":5190,"ow":5191,"along":5192,"phase":5193,"full":5194,"labels":5195,"parts":5196,"suggest":5197,"mechanisms":5198,"lif":5199,"particip":5200,"##eter":5201,"usually":5202,"##space":5203,"hidden":5204,"would":5205,"challenges":5206,"motiv":5207,"basic":5208,"take":5209,"still":5210,"benef":5211,"ele":5212,"##though":5213,"additional":5214,"##entially":5215,"although":5216,"software":5217,"synthetic":5218,"cooper":5219,"semi":5220,"##entional":5221,"tools":5222,"sources":5223,"agg":5224,"least":5225,"response":5226,"magn":5227,"##tics":5228,"enables":5229,"reinforcement":5230,"programs":5231,"##ned":5232,"##mmet":5233,"fixed":5234,"assess":5235,"##els":5236,"robustness":5237,"effects":5238,"adj":5239,"bounds":5240,"finite":5241,"##ained":5242,"games":5243,"intr":5244,"proposes":5245,"##ival":5246,"public":5247,"loop":5248,"direction":5249,"every":5250,"humanoid":5251,"technology":5252,"light":5253,"##read":5254,"color":5255,"instead":5256,"see":5257,"ear":5258,"exist":5259,"rig":5260,"hist":5261,"##other":5262,"##versity":5263,"##aries":5264,"condition":5265,"give":5266,"##enge":5267,"mus":5268,"partial":5269,"##fort":5270,"##yc":5271,"##atory":5272,"reconstruction":5273,"items":5274,"appropriate":5275,"leg":5276,"challenge":5277,"neurons":5278,"##encies":5279,"stable":5280,"review":5281,"vol":5282,"rather":5283,"consists":5284,"determine":5285,"effectively":5286,"analyze":5287,"desired":5288,"simultaneously":5289,"maintain":5290,"refl":5291,"whether":5292,"against":5293,"fully":5294,"corpus":5295,"##chron":5296,"team":5297,"exact":5298,"##oor":5299,"ax":5300,"automated":5301,"increment":5302,"##ock":5303,"##eli":5304,"grammar":5305,"quad":5306,"trees":5307,"prove":5308,"##ification":5309,"##omes":5310,"cluster":5311,"cannot":5312,"simulations":5313,"achieves":5314,"##raw":5315,"mot":5316,"ef":5317,"access":5318,"literature":5319,"basel":5320,"filtering":5321,"tel":5322,"preser":5323,"##ture":5324,"stereo":5325,"##ude":5326,"relation":5327,"conventional":5328,"another":5329,"constrained":5330,"cle":5331,"dig":5332,"##bo":5333,"##itt":5334,"espec":5335,"community":5336,"necessary":5337,"##ute":5338,"interactive":5339,"##atch":5340,"typically":5341,"##lo":5342,"explore":5343,"heuristic":5344,"recommendation":5345,"hyper":5346,"compute":5347,"convolution":5348,"generalized":5349,"##fied":5350,"especially":5351,"formulation":5352,"nois":5353,"##ital":5354,"feas":5355,"saf":5356,"improvement":5357,"walking":5358,"yield":5359,"fund":5360,"integrated":5361,"##bers":5362,"##tives":5363,"fing":5364,"tur":5365,"cand":5366,"advantage":5367,"weights":5368,"rad":5369,"cou":5370,"length":5371,"grow":5372,"combining":5373,"##agement":5374,"##omial":5375,"fam":5376,"wr":5377,"average":5378,"numerical":5379,"##ope":5380,"ess":5381,"draw":5382,"redund":5383,"answer":5384,"reach":5385,"include":5386,"spect":5387,"relationships":5388,"tog":5389,"ang":5390,"##itive":5391,"times":5392,"##ogeneous":5393,"alternative":5394,"estimates":5395,"represented":5396,"parsing":5397,"combined":5398,"##ym":5399,"sentence":5400,"sense":5401,"cog":5402,"candid":5403,"precision":5404,"ic":5405,"produce":5406,"lingu":5407,"##aptic":5408,"trajectories":5409,"##med":5410,"##ompl":5411,"weak":5412,"together":5413,"detect":5414,"propagation":5415,"adop":5416,"dependent":5417,"##tr":5418,"relevance":5419,"const":5420,"idea":5421,"aspects":5422,"previously":5423,"devices":5424,"sched":5425,"vel":5426,"##tal":5427,"define":5428,"collection":5429,"exploration":5430,"suitable":5431,"signals":5432,"##ender":5433,"##duct":5434,"whose":5435,"derive":5436,"marg":5437,"equival":5438,"great":5439,"##ored":5440,"amount":5441,"express":5442,"classical":5443,"contrast":5444,"aggreg":5445,"##vities":5446,"device":5447,"recurrent":5448,"frequency":5449,"integration":5450,"##alog":5451,"build":5452,"years":5453,"sufficient":5454,"interesting":5455,"conditional":5456,"studied":5457,"degree":5458,"construc":5459,"presence":5460,"tested":5461,"pix":5462,"induc":5463,"sal":5464,"##exts":5465,"pairs":5466,"ter":5467,"squ":5468,"pas":5469,"##tivities":5470,"##ee":5471,"land":5472,"##ders":5473,"resources":5474,"##ground":5475,"influence":5476,"arbitrary":5477,"##ues":5478,"veloc":5479,"argum":5480,"sequential":5481,"capable":5482,"polyn":5483,"improves":5484,"fit":5485,"priv":5486,"sat":5487,"measurements":5488,"improving":5489,"198":5490,"conducted":5491,"yet":5492,"##ination":5493,"evolution":5494,"closed":5495,"impact":5496,"functional":5497,"providing":5498,"consistent":5499,"overall":5500,"expected":5501,"##uning":5502,"consum":5503,"widely":5504,"levels":5505,"fundam":5506,"possib":5507,"labeled":5508,"exploit":5509,"sym":5510,"fields":5511,"##ging":5512,"heter":5513,"ec":5514,"##orts":5515,"leads":5516,"product":5517,"inform":5518,"structural":5519,"varying":5520,"stage":5521,"activities":5522,"##abilities":5523,"observations":5524,"syntac":5525,"generating":5526,"##elihood":5527,"##ove":5528,"phr":5529,"monit":5530,"increase":5531,"factors":5532,"methodology":5533,"positive":5534,"weighted":5535,"faster":5536,"##ined":5537,"behaviors":5538,"scenarios":5539,"discovery":5540,"static":5541,"construction":5542,"##own":5543,"##xt":5544,"advantages":5545,"##iod":5546,"orientation":5547,"attributes":5548,"##io":5549,"clusters":5550,"adaptation":5551,"easily":5552,"aug":5553,"opp":5554,"interv":5555,"##orph":5556,"rece":5557,"density":5558,"polynomial":5559,"tor":5560,"become":5561,"execution":5562,"handle":5563,"meaning":5564,"intelligent":5565,"likelihood":5566,"node":5567,"illustrate":5568,"noisy":5569,"background":5570,"neighbor":5571,"],":5572,"minimum":5573,"crow":5574,"##ased":5575,"person":5576,"successfully":5577,"controlled":5578,"##elf":5579,"##ou":5580,"intelligence":5581,"manif":5582,"correlation":5583,"consistency":5584,"abstract":5585,"extern":5586,"property":5587,"databases":5588,"ris":5589,"exc":5590,"refer":5591,"version":5592,"discriminative":5593,"##ash":5594,"calibration":5595,"operations":5596,"2d":5597,"parad":5598,"purpose":5599,"facil":5600,"bal":5601,"##itch":5602,"service":5603,"##te":5604,"##vari":5605,"critical":5606,"appearance":5607,"##resh":5608,"configuration":5609,"discussed":5610,"period":5611,"decomposition":5612,"estimated":5613,"spaces":5614,"ill":5615,"assumption":5616,"##mis":5617,"machines":5618,"central":5619,"edge":5620,"expon":5621,"chec":5622,"convolutional":5623,"reference":5624,"head":5625,"##ious":5626,"evidence":5627,"extracted":5628,"computed":5629,"##urb":5630,"record":5631,"groups":5632,"ep":5633,"operator":5634,"practice":5635,"summar":5636,"rich":5637,"external":5638,"article":5639,"##ectively":5640,"requirements":5641,"emerg":5642,"importance":5643,"subj":5644,"##pro":5645,"questions":5646,"##ses":5647,"vehicles":5648,"experience":5649,"science":5650,"needs":5651,"iterative":5652,"operation":5653,"motions":5654,"entity":5655,"bro":5656,"pass":5657,"elements":5658,"svm":5659,"areas":5660,"construct":5661,"symmet":5662,"nature":5663,"preferences":5664,"motor":5665,"vectors":5666,"##iped":5667,"next":5668,"partition":5669,"reve":5670,"rigid":5671,"inspired":5672,"syntactic":5673,"fundamental":5674,"geometry":5675,"##come":5676,"neu":5677,"collaborative":5678,"applying":5679,"code":5680,"repl":5681,"tens":5682,"predictive":5683,"brain":5684,"rely":5685,"##eler":5686,"modal":5687,"minimal":5688,"superior":5689,"qualit":5690,"surve":5691,"utility":5692,"paradig":5693,"management":5694,"compos":5695,"diagn":5696,"regard":5697,"assemb":5698,"resource":5699,"##ef":5700,"views":5701,"linguistic":5702,"humans":5703,"prototype":5704,"testing":5705,"far":5706,"movement":5707,"##iction":5708,"##acts":5709,"wa":5710,"transformation":5711,"mathematic":5712,"measurement":5713,"##uth":5714,"performs":5715,"manner":5716,"simulated":5717,"capabilities":5718,"english":5719,"crowd":5720,"ontology":5721,"finger":5722,"estimating":5723,"generative":5724,"relational":5725,"sentences":5726,"alignment":5727,"##rain":5728,"down":5729,"services":5730,"reduced":5731,"attem":5732,"subset":5733,"promising":5734,"theor":5735,"##eled":5736,"manifold":5737,"built":5738,"negative":5739,"##ration":5740,"formula":5741,"##ived":5742,"##ands":5743,"##emble":5744,"##ct":5745,"##ressive":5746,"percept":5747,"acceler":5748,"##ote":5749,"collision":5750,"##rem":5751,"incremental":5752,"vo":5753,"##ler":5754,"alloc":5755,"forward":5756,"phot":5757,"cameras":5758,"performing":5759,"symb":5760,"##isation":5761,"cogni":5762,"constant":5763,"manipulators":5764,"##pped":5765,"##ancy":5766,"diagnos":5767,"whole":5768,"##sigh":5769,"synchron":5770,"##vision":5771,"##ik":5772,"velocity":5773,"enable":5774,"aud":5775,"needed":5776,"assist":5777,"assign":5778,"invariant":5779,"ones":5780,"attr":5781,"criteria":5782,"facilit":5783,"##atives":5784,"improvements":5785,"core":5786,"project":5787,"expert":5788,"center":5789,"criterion":5790,"exhib":5791,"situations":5792,"subject":5793,"selected":5794,"topics":5795,"forces":5796,"subst":5797,"inher":5798,"##ml":5799,"digital":5800,"risk":5801,"perception":5802,"paths":5803,"dual":5804,"mixture":5805,"theorem":5806,"takes":5807,"hardware":5808,"##active":5809,"wind":5810,"interpretation":5811,"sensitive":5812,"##air":5813,"persp":5814,"difficul":5815,"shared":5816,"inverse":5817,"las":5818,"rap":5819,"sen":5820,"##ring":5821,"##edom":5822,"settings":5823,"assumptions":5824,"whe":5825,"material":5826,"compact":5827,"extrem":5828,"exploiting":5829,"media":5830,"sugges":5831,"cognitive":5832,"entities":5833,"identifying":5834,"thresh":5835,"oriented":5836,"##ways":5837,"##ild":5838,"lexical":5839,"##ustom":5840,"deploy":5841,"aware":5842,"projection":5843,"computationally":5844,"ey":5845,"perspective":5846,"clear":5847,"##ank":5848,"dialog":5849,"competitive":5850,"princi":5851,"##ero":5852,"heterogeneous":5853,"custom":5854,"morph":5855,"metrics":5856,"reward":5857,"detecting":5858,"notion":5859,"##ca":5860,"law":5861,"##onic":5862,"insigh":5863,"distin":5864,"considering":5865,"association":5866,"representing":5867,"##ne":5868,"intu":5869,"##ibri":5870,"create":5871,"choice":5872,"dependency":5873,"fusion":5874,"inputs":5875,"equil":5876,"repe":5877,"rapid":5878,"combines":5879,"delay":5880,"bounded":5881,"past":5882,"upon":5883,"lack":5884,"quadr":5885,"allowing":5886,"##dp":5887,"categories":5888,"##igning":5889,"sound":5890,"regularization":5891,"life":5892,"descript":5893,"baseline":5894,"diction":5895,"surfaces":5896,"##fs":5897,"schedul":5898,"stim":5899,"equilibri":5900,"implicit":5901,"consequ":5902,"graphical":5903,"goals":5904,"##equ":5905,"scenes":5906,"occur":5907,"occurr":5908,"cyc":5909,"ways":5910,"solved":5911,"cop":5912,"particularly":5913,"units":5914,"quantit":5915,"explicitly":5916,"ins":5917,"star":5918,"##bs":5919,"ensemble":5920,"connected":5921,"ai":5922,"engineering":5923,"smart":5924,"ste":5925,"##de":5926,"##ores":5927,"select":5928,"hence":5929,"augment":5930,"constructed":5931,"##lusion":5932,"relax":5933,"cnn":5934,"indicate":5935,"generic":5936,"##acting":5937,"##au":5938,"powerful":5939,"dr":5940,"##ients":5941,"plans":5942,"##izations":5943,"observation":5944,"place":5945,"##time":5946,"unit":5947,"obstacles":5948,"upper":5949,"steps":5950,"qualitative":5951,"sci":5952,"##word":5953,"etc":5954,"display":5955,"statistics":5956,"##reh":5957,"multim":5958,"##fact":5959,"ur":5960,"learns":5961,"scalable":5962,"pati":5963,"before":5964,"##ged":5965,"##omen":5966,"##ighting":5967,"##arily":5968,"around":5969,"##junc":5970,"##arm":5971,"concern":5972,"load":5973,"ps":5974,"planar":5975,"fo":5976,"##eless":5977,"true":5978,"showing":5979,"ambigu":5980,"employed":5981,"contribution":5982,"modular":5983,"##arities":5984,"easy":5985,"arr":5986,"},":5987,"gest":5988,"mess":5989,"optical":5990,"gain":5991,"road":5992,"##osition":5993,"##ised":5994,"locations":5995,"participants":5996,"developing":5997,"done":5998,"tac":5999,"##tile":6000,"hypothesis":6001,"##rees":6002,"##itude":6003,"freedom":6004,"privacy":6005,"planner":6006,"predicting":6007,"##alth":6008,"principle":6009,"locom":6010,"broad":6011,"might":6012,"abs":6013,"uniform":6014,"rates":6015,"deform":6016,"predictions":6017,"addresses":6018,"paradigm":6019,"update":6020,"mechanical":6021,"includes":6022,"sty":6023,"own":6024,"band":6025,"pi":6026,"##iding":6027,"##orting":6028,"tend":6029,"taking":6030,"##ete":6031,"accurately":6032,"litt":6033,"compli":6034,"mode":6035,"total":6036,"videos":6037,"edges":6038,"zero":6039,"phen":6040,"validate":6041,"transition":6042,"compreh":6043,"volum":6044,"taken":6045,"grid":6046,"namely":6047,"interfaces":6048,"##fying":6049,"explan":6050,"##aps":6051,"##da":6052,"##ropy":6053,"internal":6054,"sti":6055,"##..":6056,"advers":6057,"outl":6058,"##ded":6059,"mill":6060,"pen":6061,"introduces":6062,"news":6063,"ion":6064,"though":6065,"now":6066,"unlike":6067,"spars":6068,"oth":6069,"terrain":6070,"university":6071,"texture":6072,"labeling":6073,"##otic":6074,"larger":6075,"analog":6076,"candidate":6077,"plane":6078,"list":6079,"cooperative":6080,"capability":6081,"##by":6082,"score":6083,"generally":6084,"researchers":6085,"truth":6086,"mar":6087,"combine":6088,"activ":6089,"comparing":6090,"##ulated":6091,"##ions":6092,"##vo":6093,"threshold":6094,"hor":6095,"##itation":6096,"den":6097,"schemes":6098,"essential":6099,"experimentally":6100,"instr":6101,"switch":6102,"sentim":6103,"little":6104,"minimization":6105,"carri":6106,"poster":6107,"##tered":6108,"cover":6109,"unique":6110,"difference":6111,"##br":6112,"offer":6113,"desp":6114,"illum":6115,"strength":6116,"equations":6117,"confir":6118,"dimensionality":6119,"others":6120,"operators":6121,"subspace":6122,"causal":6123,"close":6124,"fine":6125,"despite":6126,"tests":6127,"coordination":6128,"##hing":6129,"##rices":6130,"recur":6131,"unified":6132,"respectively":6133,"designing":6134,"adjust":6135,"variations":6136,"acquis":6137,"slam":6138,"having":6139,"medical":6140,"treat":6141,"assembly":6142,"technologies":6143,"aims":6144,"trade":6145,"##erc":6146,"hom":6147,"scheduling":6148,"##ifying":6149,"monitoring":6150,"expect":6151,"named":6152,"evol":6153,"enab":6154,"matrices":6155,"##ises":6156,"rati":6157,"##ceed":6158,"factorization":6159,"partially":6160,"scan":6161,"effort":6162,"heuristics":6163,"##oph":6164,"reliable":6165,"##lp":6166,"typical":6167,"focused":6168,"always":6169,"spectral":6170,"fig":6171,"elimin":6172,"mut":6173,"##ole":6174,"locomotion":6175,"policies":6176,"reser":6177,"au":6178,"family":6179,"differences":6180,"hypothes":6181,"##ci":6182,"phenomen":6183,"margin":6184,"##ustri":6185,"boundary":6186,"decisions":6187,"collected":6188,"contour":6189,"behaviour":6190,"acquisition":6191,"contextual":6192,"realistic":6193,"argument":6194,"final":6195,"assume":6196,"##forward":6197,"actuator":6198,"reported":6199,"##ze":6200,"overl":6201,"reveal":6202,"limitations":6203,"benefits":6204,"##mit":6205,"dof":6206,"compens":6207,"##udg":6208,"dense":6209,"##ict":6210,"ul":6211,"##ird":6212,"##insic":6213,"##less":6214,"health":6215,"stiff":6216,"bias":6217,"skill":6218,"torque":6219,"stimul":6220,"chin":6221,"module":6222,"neuron":6223,"systematic":6224,"comparable":6225,"gives":6226,"vi":6227,"investigated":6228,"exponential":6229,"forms":6230,"facial":6231,"missing":6232,"industri":6233,"redundant":6234,"squar":6235,"chann":6236,"##actable":6237,"detailed":6238,"eye":6239,"##medi":6240,"modeled":6241,"contains":6242,"links":6243,"embedded":6244,"handling":6245,"da":6246,"max":6247,"##zation":6248,"connection":6249,"last":6250,"actual":6251,"mathematical":6252,"lever":6253,"cruc":6254,"definition":6255,"grasping":6256,"above":6257,"##uish":6258,"preference":6259,"mom":6260,"answering":6261,"sentiment":6262,"annotation":6263,"cas":6264,"quick":6265,"chain":6266,"reducing":6267,"involving":6268,"situation":6269,"probabilities":6270,"##ott":6271,"variational":6272,"passive":6273,"##tinguish":6274,"entropy":6275,"sharing":6276,"##oms":6277,"##ata":6278,"care":6279,"guarantees":6280,"determined":6281,"accept":6282,"controllers":6283,"coding":6284,"unlab":6285,"frames":6286,"empirically":6287,"logical":6288,"procedures":6289,"formation":6290,"attribute":6291,"involves":6292,"##sitions":6293,"kernels":6294,"pixel":6295,"np":6296,"##ists":6297,"landmark":6298,"##ocol":6299,"##urally":6300,"measured":6301,"net":6302,"##usion":6303,"composition":6304,"tele":6305,"circu":6306,"corpor":6307,"currently":6308,"expressions":6309,"ig":6310,"differential":6311,"yields":6312,"traffic":6313,"protocol":6314,"diverse":6315,"parametric":6316,"just":6317,"window":6318,"##rical":6319,"encoding":6320,"side":6321,"table":6322,"complement":6323,"coher":6324,"running":6325,"formalism":6326,"section":6327,"comple":6328,"air":6329,"##point":6330,"commonly":6331,"ht":6332,"degrees":6333,"equivalent":6334,"movements":6335,"nearest":6336,"##cl":6337,"costs":6338,"##con":6339,"descriptions":6340,"findings":6341,"subsequ":6342,"voc":6343,"coverage":6344,"patch":6345,"modelling":6346,"becomes":6347,"12":6348,"posterior":6349,"dictionary":6350,"cells":6351,"shif":6352,"##ners":6353,"##istration":6354,"templ":6355,"resol":6356,"coupled":6357,"##bi":6358,"valued":6359,"analyzed":6360,"get":6361,"evaluating":6362,"recovery":6363,"##menting":6364,"wear":6365,"scenario":6366,"biological":6367,"reduces":6368,"tensor":6369,"allocation":6370,"industrial":6371,"la":6372,"validation":6373,"cp":6374,"##cop":6375,"members":6376,"motivated":6377,"verification":6378,"bre":6379,"overcome":6380,"depends":6381,"analyzing":6382,"changing":6383,"retrie":6384,"move":6385,"relatively":6386,"implic":6387,"element":6388,"##most":6389,"recommender":6390,"synthesis":6391,"##ides":6392,"prel":6393,"identified":6394,"deli":6395,"stiffness":6396,"dynamically":6397,"explain":6398,"examine":6399,"mass":6400,"##apping":6401,"##tices":6402,"working":6403,"rating":6404,"convers":6405,"shapes":6406,"gait":6407,"##iness":6408,"quantitative":6409,"impos":6410,"itself":6411,"likely":6412,"carried":6413,"##log":6414,"produces":6415,"deterministic":6416,"decre":6417,"modules":6418,"tack":6419,"dynamical":6420,"bey":6421,"dimensions":6422,"category":6423,"ing":6424,"established":6425,"##oming":6426,"sensory":6427,"distinguish":6428,"dependencies":6429,"teach":6430,"scienti":6431,"crucial":6432,"obstacle":6433,"beyond":6434,"feasible":6435,"aspect":6436,"alge":6437,"##elet":6438,"clo":6439,"capac":6440,"authors":6441,"introduction":6442,"incompl":6443,"trust":6444,"applicable":6445,"incorporating":6446,"theoretic":6447,"ly":6448,"kinematics":6449,"unlabeled":6450,"sn":6451,"represents":6452,"attack":6453,"guarantee":6454,"11":6455,"restricted":6456,"layers":6457,"opin":6458,"suff":6459,"positions":6460,"magnitude":6461,"specified":6462,"pages":6463,"variance":6464,"pairwise":6465,"infin":6466,"##bra":6467,"third":6468,"coe":6469,"five":6470,"iner":6471,"cues":6472,"incorporate":6473,"##df":6474,"ratio":6475,"asym":6476,"equilibrium":6477,"tactile":6478,"enough":6479,"ra":6480,"actuators":6481,"registration":6482,"##olar":6483,"bott":6484,"##ographic":6485,"theories":6486,"expensive":6487,"segments":6488,"##bal":6489,"##ries":6490,"mixed":6491,"preserving":6492,"sum":6493,"plac":6494,"determining":6495,"ontologies":6496,"prelimin":6497,"laser":6498,"##rel":6499,"discour":6500,"spi":6501,"15":6502,"retur":6503,"selecting":6504,"haptic":6505,"##off":6506,"mc":6507,"correspondence":6508,"##net":6509,"diver":6510,"asympt":6511,"##ale":6512,"modified":6513,"##ili":6514,"chinese":6515,"##onomic":6516,"aw":6517,"experts":6518,"jointly":6519,"indoor":6520,"cloud":6521,"almost":6522,"orth":6523,"increases":6524,"##odal":6525,"integrating":6526,"##ull":6527,"contributions":6528,"decod":6529,"driving":6530,"entire":6531,"population":6532,"extracting":6533,"keep":6534,"emotion":6535,"##ectivity":6536,"##paramet":6537,"early":6538,"demonstrates":6539,"quadratic":6540,"variation":6541,"recall":6542,"principal":6543,"bil":6544,"market":6545,"adversari":6546,"prev":6547,"##ambigu":6548,"generates":6549,"produced":6550,"containing":6551,"preliminary":6552,"subg":6553,"architectures":6554,"covari":6555,"precise":6556,"publish":6557,"brow":6558,"station":6559,"stabil":6560,"illumination":6561,"six":6562,"##etch":6563,"kind":6564,"constit":6565,"##let":6566,"##ange":6567,"confidence":6568,"descent":6569,"block":6570,"naturally":6571,"intrinsic":6572,"##anch":6573,"rotation":6574,"meta":6575,"##ounts":6576,"showed":6577,"##urity":6578,"stat":6579,"##ss":6580,"counter":6581,"benefit":6582,"safety":6583,"principles":6584,"achieving":6585,"imaging":6586,"formulated":6587,"subjects":6588,"texts":6589,"filters":6590,"##port":6591,"touch":6592,"optimize":6593,"algebra":6594,"biped":6595,"bus":6596,"integrate":6597,"cut":6598,"##wh":6599,"directions":6600,"und":6601,"remain":6602,"discourse":6603,"conflic":6604,"hold":6605,"om":6606,"##ancing":6607,"##day":6608,"corpora":6609,"composed":6610,"od":6611,"configurations":6612,"searching":6613,"assis":6614,"adversarial":6615,"operating":6616,"piec":6617,"na":6618,"keyword":6619,"directed":6620,"sparsity":6621,"organization":6622,"leading":6623,"pay":6624,"experi":6625,"smaller":6626,"demand":6627,"embeddings":6628,"##ufact":6629,"too":6630,"seen":6631,"aerial":6632,"connections":6633,"estimator":6634,"internet":6635,"guided":6636,"respons":6637,"look":6638,"box":6639,"##ton":6640,"##ices":6641,"rough":6642,"hypotheses":6643,"##ends":6644,"##mission":6645,"priori":6646,"phrase":6647,"expan":6648,"logics":6649,"highl":6650,"forec":6651,"spike":6652,"hierarchy":6653,"##ave":6654,"ideas":6655,"feasibility":6656,"responses":6657,"usage":6658,"streams":6659,"satisfaction":6660,"formulate":6661,"port":6662,"increasingly":6663,"auto":6664,"disturb":6665,"author":6666,"##ker":6667,"##rip":6668,"addressed":6669,"combinator":6670,"verify":6671,"genetic":6672,"manufact":6673,"##itten":6674,"involved":6675,"##ided":6676,"##irable":6677,"minimize":6678,"minimizing":6679,"##fl":6680,"##ban":6681,"kinds":6682,"avoidance":6683,"mr":6684,"optimized":6685,"received":6686,"style":6687,"labor":6688,"locally":6689,"##edy":6690,"##lusions":6691,"##ometric":6692,"spl":6693,"scales":6694,"osc":6695,"lexic":6696,"difficulty":6697,"tuning":6698,"fal":6699,"guide":6700,"relies":6701,"right":6702,"##sively":6703,"particle":6704,"expressed":6705,"incomplete":6706,"mas":6707,"poor":6708,"servo":6709,"##osting":6710,"nar":6711,"proposition":6712,"##osen":6713,"anim":6714,"summarization":6715,"eig":6716,"visualization":6717,"##riting":6718,"distinct":6719,"teleoper":6720,"production":6721,"neighborhood":6722,"bid":6723,"hol":6724,"outputs":6725,"created":6726,"quickly":6727,"constructing":6728,"##itory":6729,"scores":6730,"recursive":6731,"enhance":6732,"frequent":6733,"collections":6734,"targets":6735,"branch":6736,"security":6737,"##ath":6738,"focuses":6739,"##otonic":6740,"share":6741,"rights":6742,"solvers":6743,"abstraction":6744,"##uctions":6745,"coordinate":6746,"vers":6747,"child":6748,"conduct":6749,"poses":6750,"##ogram":6751,"recommendations":6752,"increased":6753,"oscill":6754,"##ai":6755,"variant":6756,"supported":6757,"gap":6758,"##ortun":6759,"offers":6760,"else":6761,"refin":6762,"##ended":6763,"100":6764,"##load":6765,"##struct":6766,"intens":6767,"domin":6768,"contexts":6769,"pruning":6770,"opportun":6771,"frag":6772,"##itter":6773,"##we":6774,"potentially":6775,"detected":6776,"contribut":6777,"stra":6778,"disambigu":6779,"consisting":6780,"linked":6781,"incon":6782,"characterize":6783,"angle":6784,"bag":6785,"progress":6786,"##ectional":6787,"diagnosis":6788,"joints":6789,"imple":6790,"tail":6791,"##use":6792,"annotated":6793,"##mediate":6794,"combinatorial":6795,"##ready":6796,"##actions":6797,"argue":6798,"solver":6799,"bar":6800,"stor":6801,"already":6802,"##ocular":6803,"elastic":6804,"mainly":6805,"tax":6806,"##ych":6807,"straight":6808,"existence":6809,"##ma":6810,"lines":6811,"answers":6812,"fric":6813,"imag":6814,"--":6815,"rg":6816,"remains":6817,"his":6818,"augmented":6819,"##cs":6820,"##af":6821,"her":6822,"papers":6823,"maximization":6824,"fron":6825,"reserved":6826,"edit":6827,"indexing":6828,"dialogue":6829,"start":6830,"validated":6831,"assignment":6832,"underw":6833,"induction":6834,"growing":6835,"boosting":6836,"latter":6837,"chosen":6838,"univers":6839,"turn":6840,"pip":6841,"exploits":6842,"recon":6843,"##amp":6844,"iteration":6845,"separate":6846,"##omp":6847,"extensions":6848,"interact":6849,"compression":6850,"tun":6851,"attempt":6852,"parser":6853,"##bf":6854,"storage":6855,"flu":6856,"equation":6857,"wik":6858,"friction":6859,"additionally":6860,"initi":6861,"page":6862,"diversity":6863,"##oti":6864,"textual":6865,"utilizing":6866,"dl":6867,"volume":6868,"transformations":6869,"recognize":6870,"completion":6871,"##ake":6872,"organizing":6873,"measuring":6874,"alternatives":6875,"specification":6876,"capacity":6877,"enhanced":6878,"squares":6879,"mer":6880,"bases":6881,"foot":6882,"player":6883,"interval":6884,"quite":6885,"remote":6886,"reflect":6887,"technical":6888,"##).":6889,"##rad":6890,"##omal":6891,"wheel":6892,"captured":6893,"conceptual":6894,"##emic":6895,"intensity":6896,"axi":6897,"singular":6898,"ordering":6899,"exploring":6900,"pert":6901,"boole":6902,"survey":6903,"creating":6904,"##irectional":6905,"commerc":6906,"ensure":6907,"manual":6908,"insights":6909,"##ots":6910,"multimodal":6911,"horiz":6912,"introducing":6913,"ign":6914,"##head":6915,"false":6916,"individuals":6917,"##agent":6918,"supports":6919,"anomal":6920,"toler":6921,"optimizing":6922,"symbolic":6923,"diag":6924,"failure":6925,"expansion":6926,"assumed":6927,"psych":6928,"boolean":6929,"win":6930,"div":6931,"clut":6932,"press":6933,"boundaries":6934,"flexibility":6935,"checking":6936,"descriptors":6937,"communities":6938,"curve":6939,"urban":6940,"inconsist":6941,"bri":6942,"affect":6943,"##entral":6944,"independently":6945,"later":6946,"voting":6947,"electron":6948,"magnetic":6949,"facilitate":6950,"##fications":6951,"##ply":6952,"inherent":6953,"underwater":6954,"annotations":6955,"advanced":6956,"proxim":6957,"maintaining":6958,"neuro":6959,"comprehensive":6960,"mutual":6961,"nn":6962,"workspace":6963,"calculus":6964,"music":6965,"##fect":6966,"supporting":6967,"travel":6968,"topology":6969,"##ectives":6970,"adver":6971,"tex":6972,"personalized":6973,"meaningful":6974,"casc":6975,"har":6976,"batch":6977,"##ery":6978,"figure":6979,"##olation":6980,"topological":6981,"benchmarks":6982,"imped":6983,"aggregation":6984,"copy":6985,"fav":6986,"outd":6987,"transport":6988,"##side":6989,"vocab":6990,"environmental":6991,"enabling":6992,"wearable":6993,"characterization":6994,"conjunc":6995,"scre":6996,"considers":6997,"guaranteed":6998,"##ones":6999,"##comes":7000,"extends":7001,"moment":7002,"describing":7003,"controlling":7004,"induced":7005,"greedy":7006,"evaluations":7007,"##ease":7008,"activation":7009,"scalability":7010,"exists":7011,"fault":7012,"utilize":7013,"slow":7014,"##ography":7015,"big":7016,"requiring":7017,"sites":7018,"accompl":7019,"wir":7020,"##sour":7021,"products":7022,"exch":7023,"formulas":7024,"cm":7025,"proved":7026,"correspondences":7027,"##ren":7028,"drive":7029,"conclud":7030,"accomplish":7031,"had":7032,"##itting":7033,"##iles":7034,"modern":7035,"identif":7036,"##go":7037,"multiagent":7038,"assessment":7039,"ord":7040,"ses":7041,"history":7042,"implications":7043,"><":7044,"infr":7045,"propositional":7046,"rgb":7047,"manually":7048,"decentral":7049,"musc":7050,"ded":7051,"desirable":7052,"monte":7053,"primary":7054,"numbers":7055,"demonstration":7056,"##eed":7057,"carlo":7058,"suggests":7059,"##mod":7060,"seem":7061,"repro":7062,"safe":7063,"##ortion":7064,"horizon":7065,"expressive":7066,"extremely":7067,"variants":7068,"occlusion":7069,"##process":7070,"##has":7071,"exhibit":7072,"eigen":7073,"##board":7074,"faces":7075,"scientific":7076,"orders":7077,"engines":7078,"##cent":7079,"pool":7080,"distances":7081,"once":7082,"diffusion":7083,"validity":7084,"##vier":7085,"libr":7086,"conference":7087,"inertial":7088,"regret":7089,"twitter":7090,"analytical":7091,"subt":7092,"balance":7093,"##oles":7094,"ped":7095,"click":7096,"never":7097,"manufacturing":7098,"predicted":7099,"rang":7100,"spiking":7101,"tags":7102,"platforms":7103,"infinite":7104,"flight":7105,"pse":7106,"##ipped":7107,"kal":7108,"##cing":7109,"applicability":7110,"rational":7111,"##apan":7112,"cour":7113,"md":7114,"##pa":7115,"satisfy":7116,"synaptic":7117,"curves":7118,"details":7119,"##plic":7120,"adding":7121,"audio":7122,"##asting":7123,"pseud":7124,"sensitivity":7125,"redundancy":7126,"compliant":7127,"channel":7128,"separation":7129,"uav":7130,"classify":7131,"cs":7132,"card":7133,"my":7134,"discre":7135,"##ocks":7136,"japan":7137,"scaling":7138,"attract":7139,"tractable":7140,"intuitive":7141,"proven":7142,"30":7143,"##tp":7144,"##ashion":7145,"adverti":7146,"ut":7147,"##ense":7148,"positioning":7149,"medi":7150,"advances":7151,"fri":7152,"deliver":7153,"surpr":7154,"negoti":7155,"brief":7156,"hu":7157,"crowdsour":7158,"covariance":7159,"##ucl":7160,"acquired":7161,"completely":7162,"##ouse":7163,"fair":7164,"elsevier":7165,"verified":7166,"captures":7167,"outliers":7168,"business":7169,"##aged":7170,"correlations":7171,"fashion":7172,"gp":7173,"connectivity":7174,"##he":7175,"axis":7176,"penal":7177,"categorization":7178,"deformation":7179,"comparisons":7180,"pixels":7181,"tight":7182,"why":7183,"actuation":7184,"mm":7185,"substanti":7186,"lap":7187,"beg":7188,"mt":7189,"inline":7190,"inver":7191,"shad":7192,"dealing":7193,"characterized":7194,"emphas":7195,"pca":7196,"</":7197,"##ein":7198,"depending":7199,"eucl":7200,"moun":7201,"updates":7202,"phrases":7203,"approximations":7204,"claus":7205,"fitting":7206,"generalize":7207,"##ror":7208,"players":7209,"##sel":7210,"carry":7211,"tackle":7212,"##itives":7213,"mobility":7214,"encour":7215,"000":7216,"saliency":7217,"##siv":7218,"tagging":7219,"fab":7220,"attach":7221,"follows":7222,"grammars":7223,"substan":7224,"merg":7225,"simply":7226,"starting":7227,"maximize":7228,"primitives":7229,"greatly":7230,"deformable":7231,"multil":7232,"commercial":7233,"outdoor":7234,"##ending":7235,"jus":7236,"##lind":7237,"bur":7238,"kalman":7239,"16":7240,"13":7241,"ca":7242,"##son":7243,"concent":7244,"pan":7245,"circuit":7246,"enter":7247,"##ingual":7248,"stationary":7249,"international":7250,"synchronization":7251,"repeated":7252,"approximately":7253,"reliability":7254,"delays":7255,"detector":7256,"##ilities":7257,"inn":7258,"##idean":7259,"published":7260,"span":7261,"complic":7262,"clin":7263,"choos":7264,"rl":7265,"curv":7266,"##ologically":7267,"spatio":7268,"possibility":7269,"coupling":7270,"remo":7271,"independence":7272,"pack":7273,"feedforward":7274,"nm":7275,"##zed":7276,"##iability":7277,"##to":7278,"14":7279,"##izer":7280,"##elling":7281,"thereby":7282,"biom":7283,"euclidean":7284,"ml":7285,"##based":7286,"adapted":7287,"propor":7288,"choose":7289,"perturb":7290,"added":7291,"expectation":7292,"representative":7293,"viewpoint":7294,"recognizing":7295,"walk":7296,"cause":7297,"##cr":7298,"equipped":7299,"gather":7300,"patient":7301,"substantial":7302,"correlated":7303,"confirm":7304,"impedance":7305,"reality":7306,"utilized":7307,"##ruct":7308,"##ining":7309,"##unately":7310,"war":7311,"##lier":7312,"##//":7313,"sketch":7314,"inequ":7315,"adopted":7316,"rout":7317,"whereas":7318,"##eu":7319,"equal":7320,"decentralized":7321,"evolutionary":7322,"nonparamet":7323,"perceptual":7324,"explored":7325,"##ta":7326,"##aim":7327,"##dd":7328,"performances":7329,"guidance":7330,"candidates":7331,"pus":7332,"##wr":7333,"strongly":7334,"##ows":7335,"combinations":7336,"ww":7337,"reviews":7338,"informative":7339,"nonparametric":7340,"cat":7341,"sliding":7342,"students":7343,"shift":7344,"judg":7345,"roll":7346,"##poses":7347,"profile":7348,"rdf":7349,"inters":7350,"clim":7351,"##forts":7352,"observe":7353,"rnn":7354,"incorporates":7355,"switching":7356,"indeed":7357,"://":7358,"capturing":7359,"speak":7360,"piece":7361,"efforts":7362,"orthog":7363,"symmetric":7364,"caused":7365,"site":7366,"involve":7367,"suggested":7368,"histogram":7369,"relaxation":7370,"associative":7371,"discovering":7372,"discriminant":7373,"limits":7374,"characteristic":7375,"leverage":7376,"synthes":7377,"##ters":7378,"belong":7379,"discussion":7380,"##times":7381,"symbol":7382,"perm":7383,"occurrence":7384,"##ayer":7385,"thin":7386,"##aling":7387,"left":7388,"arguments":7389,"behavioral":7390,"suited":7391,"frequently":7392,"template":7393,"25":7394,"compil":7395,"learner":7396,"noun":7397,"##ening":7398,"articles":7399,"##ensus":7400,"explanation":7401,"db":7402,"home":7403,"hal":7404,"hands":7405,"analyses":7406,"##order":7407,"##ips":7408,"skills":7409,"employs":7410,"opinion":7411,"viewed":7412,"phenomena":7413,"##uration":7414,"periodic":7415,"rapidly":7416,"unfort":7417,"patients":7418,"nlp":7419,"supervision":7420,"##orp":7421,"inser":7422,"##ulary":7423,"##enced":7424,"##mc":7425,"string":7426,"experiences":7427,"##ford":7428,"hashing":7429,"##orial":7430,"array":7431,"cycle":7432,"substantially":7433,"csp":7434,"theoretically":7435,"origin":7436,"fabric":7437,"justi":7438,"iii":7439,"twe":7440,"orthogonal":7441,"coeffic":7442,"##rot":7443,"compan":7444,"gaze":7445,"wikiped":7446,"coefficients":7447,"count":7448,"matches":7449,"stack":7450,"deals":7451,"baselines":7452,"coal":7453,"expand":7454,"monocular":7455,"deb":7456,"partitioning":7457,"vocabulary":7458,"##ensively":7459,"ap":7460,"##selves":7461,"collective":7462,"competition":7463,"www":7464,"sizes":7465,"discon":7466,"50":7467,"vs":7468,"regarding":7469,"unfortunately":7470,"wikipedia":7471,"ms":7472,"possibly":7473,"water":7474,"symmetry":7475,"children":7476,"inductive":7477,"consumption":7478,"##acc":7479,"##imensional":7480,"##fully":7481,"implementations":7482,"educ":7483,"coar":7484,"modes":7485,"regul":7486,"interested":7487,"radi":7488,"complementary":7489,"check":7490,"##entions":7491,"##ump":7492,"##eleton":7493,"actuated":7494,"numerous":7495,"grained":7496,"sr":7497,"##ustr":7498,"treatment":7499,"disambiguation":7500,"gesture":7501,"devi":7502,"defa":7503,"naive":7504,"nor":7505,"reading":7506,"offline":7507,"##eline":7508,"leveraging":7509,"claim":7510,"illustrated":7511,"operate":7512,"investigation":7513,"pom":7514,"obtaining":7515,"##olute":7516,"globally":7517,"xml":7518,"correction":7519,"letter":7520,"clauses":7521,"weighting":7522,"trig":7523,"extending":7524,"designs":7525,"similarities":7526,"equivalence":7527,"try":7528,"you":7529,"stages":7530,"insight":7531,"universal":7532,"##vial":7533,"multivari":7534,"##lar":7535,"proposal":7536,"bottom":7537,"message":7538,"regularized":7539,"refinement":7540,"inside":7541,"square":7542,"electric":7543,"price":7544,"algorithmic":7545,"schema":7546,"utilizes":7547,"automation":7548,"ball":7549,"teleoperation":7550,"##illance":7551,"priors":7552,"##ometry":7553,"beliefs":7554,"proportion":7555,"pseudo":7556,"reasonable":7557,"asymptotic":7558,"##orphic":7559,"cy":7560,"adequ":7561,"integrates":7562,"reconf":7563,"##hes":7564,"consideration":7565,"hear":7566,"profiles":7567,"surveillance":7568,"##structured":7569,"ann":7570,"dev":7571,"mi":7572,"depart":7573,"let":7574,"##edia":7575,"##isely":7576,"##utes":7577,"spher":7578,"reports":7579,"considerable":7580,"mes":7581,"succ":7582,"stored":7583,"greater":7584,"comparative":7585,"triang":7586,"overview":7587,"earlier":7588,"helps":7589,"gains":7590,"employing":7591,"sil":7592,"uncertainties":7593,"##cal":7594,"##eas":7595,"aid":7596,"compr":7597,"gps":7598,"put":7599,"render":7600,"ss":7601,"##atter":7602,"syntax":7603,"ts":7604,"concurrent":7605,"codes":7606,"landmarks":7607,"##exp":7608,"onto":7609,"##bod":7610,"exploited":7611,"##tenance":7612,"##ysi":7613,"pred":7614,"wireless":7615,"operational":7616,"##ube":7617,"intended":7618,"consensus":7619,"inspection":7620,"##li":7621,"proofs":7622,"mac":7623,"ambiguity":7624,"compati":7625,"unstructured":7626,"surprising":7627,"intermediate":7628,"diagram":7629,"##osk":7630,"transmission":7631,"##ancement":7632,"attempts":7633,"wise":7634,"maintenance":7635,"exactly":7636,"proceed":7637,"bes":7638,"email":7639,"objectives":7640,"nets":7641,"effector":7642,"daily":7643,"##tes":7644,"optimality":7645,"##onomy":7646,"servoing":7647,"colum":7648,"##cer":7649,"vibr":7650,"revision":7651,"emerging":7652,"%.":7653,"maximizing":7654,"strict":7655,"plau":7656,"pc":7657,"suffer":7658,"##na":7659,"2011":7660,"descriptor":7661,"curvature":7662,"usefulness":7663,"fall":7664,"innov":7665,"diss":7666,"integer":7667,"electronic":7668,"##aking":7669,"18":7670,"lda":7671,"##ades":7672,"wavel":7673,"tu":7674,"overlapping":7675,"encoun":7676,"arise":7677,"##ifies":7678,"patches":7679,"grouping":7680,"fraction":7681,"##vable":7682,"##utation":7683,"favor":7684,"focusing":7685,"majority":7686,"marginal":7687,"brid":7688,"##ql":7689,"encode":7690,"records":7691,"ideal":7692,"larg":7693,"morphological":7694,"written":7695,"forecasting":7696,"multivariate":7697,"surround":7698,"worst":7699,"circum":7700,"simpler":7701,"##right":7702,"##iving":7703,"reasons":7704,"##mer":7705,"messages":7706,"##ru":7707,"salient":7708,"instrum":7709,"electro":7710,"instit":7711,"million":7712,"pars":7713,"tal":7714,"demonstrating":7715,"collaboration":7716,"alone":7717,"##oking":7718,"applies":7719,"discusses":7720,"##asi":7721,"multic":7722,"bio":7723,"##hop":7724,"##ites":7725,"preprocess":7726,"mounted":7727,"gover":7728,"gestures":7729,"##arity":7730,"vertical":7731,"##wid":7732,"perceptron":7733,"transitions":7734,"followed":7735,"closely":7736,"implementing":7737,"pic":7738,"requirement":7739,"concerned":7740,"dependence":7741,"blind":7742,"agre":7743,"incorporated":7744,"##gical":7745,"themselves":7746,"##),":7747,"##asive":7748,"amounts":7749,"conclude":7750,"##inary":7751,"##astruct":7752,"##oted":7753,"thous":7754,"largely":7755,"##ats":7756,"investigates":7757,"correctly":7758,"grip":7759,"roles":7760,"name":7761,"teams":7762,"lexicon":7763,"ham":7764,"outcomes":7765,"assigned":7766,"japanese":7767,"reactive":7768,"attit":7769,"coherent":7770,"##raft":7771,"ratings":7772,"serve":7773,"197":7774,"pd":7775,"setup":7776,"replac":7777,"dc":7778,"##ymmet":7779,"ol":7780,"raw":7781,"ubi":7782,"spread":7783,"affine":7784,"tis":7785,"generator":7786,"sometimes":7787,"publicly":7788,"choices":7789,"fus":7790,"differenti":7791,"included":7792,"uns":7793,"efficacy":7794,"valuable":7795,"2012":7796,"contribute":7797,"exchange":7798,"##width":7799,"tab":7800,"blocks":7801,"computations":7802,"kn":7803,"characters":7804,"highlight":7805,"##ortex":7806,"growth":7807,"story":7808,"crowdsourcing":7809,"interacting":7810,"termin":7811,"date":7812,"black":7813,"hmm":7814,"led":7815,"iteratively":7816,"difficulties":7817,"until":7818,"consequently":7819,"##estri":7820,"##gs":7821,"##orical":7822,"##erman":7823,"subsets":7824,"aa":7825,"hop":7826,"verb":7827,"defining":7828,"clinical":7829,"ls":7830,"pursu":7831,"assistance":7832,"ubiqu":7833,"nan":7834,"producing":7835,"infrastruct":7836,"beh":7837,"plays":7838,"pedestri":7839,"cf":7840,"bit":7841,"##asing":7842,"observer":7843,"converge":7844,"laboratory":7845,"library":7846,"planners":7847,"consistently":7848,"ask":7849,"##ested":7850,"extent":7851,"finds":7852,"avoiding":7853,"inhib":7854,"allowed":7855,"board":7856,"satisfiability":7857,"complicated":7858,"##onym":7859,"2010":7860,"##gery":7861,"modalities":7862,"acceleration":7863,"evolving":7864,"##itous":7865,"deployment":7866,"##ystem":7867,"proving":7868,"entail":7869,"lst":7870,"multilayer":7871,"coordinates":7872,"subgraph":7873,"decompos":7874,"##weight":7875,"clearly":7876,"simplified":7877,"=\"":7878,"mal":7879,"note":7880,"radial":7881,"clause":7882,"2015":7883,"actually":7884,"##rec":7885,"believe":7886,"##cri":7887,"day":7888,"##vs":7889,"##map":7890,"assuming":7891,"17":7892,"specify":7893,"continuously":7894,"compliance":7895,"cha":7896,"smoothing":7897,"stimuli":7898,"flat":7899,"disjunc":7900,"absolute":7901,"##unov":7902,"sho":7903,"adopt":7904,"##be":7905,"intervals":7906,"summary":7907,"perfect":7908,"2013":7909,"aver":7910,"creation":7911,"legged":7912,"distinc":7913,"edu":7914,"swarm":7915,"arms":7916,"##dimensional":7917,"precisely":7918,"versions":7919,"##apunov":7920,"mail":7921,"encoded":7922,"semantically":7923,"discrimination":7924,"usability":7925,"dispar":7926,"declar":7927,"##ynchron":7928,"course":7929,"mp":7930,"##ults":7931,"iden":7932,"som":7933,"student":7934,"##ques":7935,"##points":7936,"randomized":7937,"choosing":7938,"realize":7939,"##hed":7940,"##ives":7941,"scoring":7942,"dram":7943,"ordered":7944,"randomly":7945,"##ls":7946,"simulator":7947,"displac":7948,"surgical":7949,"calculated":7950,"workshop":7951,"ri":7952,"soph":7953,"observable":7954,"default":7955,"lyapunov":7956,"##ey":7957,"argumentation":7958,"computes":7959,"coarse":7960,"want":7961,"sampled":7962,"boost":7963,"wall":7964,"##hol":7965,"monotonic":7966,"mention":7967,"asymmet":7968,"proximity":7969,"##prop":7970,"2014":7971,"lag":7972,"detectors":7973,"pressure":7974,"##bing":7975,"interests":7976,"algebraic":7977,"vertices":7978,"dirich":7979,"purposes":7980,"owl":7981,"odometry":7982,"##sibility":7983,"##sts":7984,"occup":7985,"compress":7986,"##spaces":7987,"dirichlet":7988,"ten":7989,"cooperation":7990,"tut":7991,"cope":7992,"discontinu":7993,"du":7994,"ital":7995,"specifications":7996,"updating":7997,"outlier":7998,"reconfigur":7999,"jour":8000,"prolog":8001,"shot":8002,"realized":8003,"weakly":8004,"she":8005,"phon":8006,"##01":8007,"##inting":8008,"presentation":8009,"cc":8010,"ubiquitous":8011,"longer":8012,"stimulus":8013,"closure":8014,"disease":8015,"discovered":8016,"besides":8017,"frameworks":8018,"extensively":8019,"sophistic":8020,"eeg":8021,"sus":8022,"estimators":8023,"decoding":8024,"eigenv":8025,"availability":8026,"examined":8027,"deployed":8028,"cn":8029,"industr":8030,"##ulate":8031,"imbal":8032,"articulated":8033,"cortex":8034,"outcome":8035,"##icity":8036,"quantization":8037,"canon":8038,"##eck":8039,"moves":8040,"industry":8041,"oppos":8042,"explanations":8043,"##bm":8044,"dead":8045,"2005":8046,"occlusions":8047,"2007":8048,"degrad":8049,"copyright":8050,"occurs":8051,"gene":8052,"##lear":8053,"workers":8054,"neighbors":8055,"extreme":8056,"classifying":8057,"additive":8058,"##app":8059,"drawback":8060,"keywords":8061,"divergence":8062,"##areness":8063,"##tures":8064,"ampl":8065,"nearly":8066,"directional":8067,"transpar":8068,"ranked":8069,"phenomenon":8070,"mim":8071,"integral":8072,"budg":8073,"job":8074,"lists":8075,"facts":8076,"visually":8077,"maximal":8078,"updated":8079,"recorded":8080,"nom":8081,"##rum":8082,"residual":8083,"unman":8084,"explores":8085,"runs":8086,"son":8087,"consuming":8088,"2009":8089,"reproduc":8090,"##writing":8091,"modification":8092,"drawn":8093,"##ener":8094,"today":8095,"book":8096,"peer":8097,"##uble":8098,"##way":8099,"##copic":8100,"##pers":8101,"subsequent":8102,"pure":8103,"disturbances":8104,"##empl":8105,"##ars":8106,"hash":8107,"constitu":8108,"spherical":8109,"variability":8110,"formed":8111,"selective":8112,"2006":8113,"canonical":8114,"compensation":8115,"ranging":8116,"drift":8117,"maneu":8118,"transduc":8119,"firing":8120,"hund":8121,"gran":8122,"unmanned":8123,"cult":8124,"reform":8125,"predicate":8126,"http":8127,"shall":8128,"plant":8129,"neuronal":8130,"mir":8131,"autonomously":8132,"hundred":8133,"fewer":8134,"massive":8135,"projections":8136,"displays":8137,"protocols":8138,"percent":8139,"quasi":8140,"front":8141,"py":8142,"##vm":8143,"opportunities":8144,"acous":8145,"pol":8146,"inferring":8147,"private":8148,"##mann":8149,"preferred":8150,"extra":8151,"concer":8152,"tradeoff":8153,"pp":8154,"straightforward":8155,"##berg":8156,"lot":8157,"omn":8158,"seed":8159,"linearly":8160,"principled":8161,"awareness":8162,"limitation":8163,"behind":8164,"soci":8165,"arri":8166,"webs":8167,"ultr":8168,"coherence":8169,"spring":8170,"sophisticated":8171,"decou":8172,"##mitted":8173,"utter":8174,"synap":8175,"travers":8176,"##embles":8177,"motivation":8178,"lapl":8179,"unse":8180,"addressing":8181,"concerns":8182,"conflict":8183,"easier":8184,"materials":8185,"city":8186,"rh":8187,"definitions":8188,"mappings":8189,"normalized":8190,"merging":8191,"cortical":8192,"projects":8193,"##atures":8194,"trivial":8195,"cach":8196,"##ah":8197,"membership":8198,"negotiation":8199,"iee":8200,"##rog":8201,"surgery":8202,"bring":8203,"asynchron":8204,"department":8205,"arc":8206,"determination":8207,"correctness":8208,"tang":8209,"incrementally":8210,"muscle":8211,"jac":8212,"mostly":8213,"master":8214,"##nal":8215,"##olding":8216,"break":8217,"2008":8218,"popularity":8219,"begin":8220,"exempl":8221,"distortion":8222,"hoc":8223,"tempor":8224,"huge":8225,"backprop":8226,"spectrum":8227,"polar":8228,"come":8229,"bounding":8230,"dramatic":8231,"##bot":8232,"age":8233,"identity":8234,"transformed":8235,"customer":8236,"##emporal":8237,"command":8238,"skin":8239,"wi":8240,"##the":8241,"mission":8242,"alle":8243,"firstly":8244,"##oken":8245,"foundation":8246,"ambiguous":8247,"ieee":8248,"teaching":8249,"dam":8250,"##jection":8251,"instanti":8252,"pul":8253,"statistically":8254,"rbf":8255,"angles":8256,"##elines":8257,"lighting":8258,"revis":8259,"determines":8260,"boot":8261,"eg":8262,"contained":8263,"tissue":8264,"##ident":8265,"steering":8266,"##odes":8267,"expos":8268,"linking":8269,"organized":8270,"preprocessing":8271,"##oint":8272,"interpreted":8273,"separately":8274,".)":8275,"bilingual":8276,"svms":8277,"##osp":8278,"##atical":8279,"store":8280,"spoken":8281,"becoming":8282,"outs":8283,"wavelet":8284,"lp":8285,"temper":8286,"indicates":8287,"harm":8288,"##orous":8289,"normalization":8290,"embod":8291,"restrictions":8292,"ine":8293,"aux":8294,"infrastructure":8295,"attacks":8296,"\".":8297,"collect":8298,"##ll":8299,"##ape":8300,"primitive":8301,"thor":8302,"spatially":8303,"2016":8304,"transi":8305,"succes":8306,"asynchronous":8307,"repair":8308,"novelty":8309,"recognized":8310,"referred":8311,"causes":8312,"doing":8313,"builds":8314,"##idirectional":8315,"classified":8316,"angular":8317,"##lass":8318,"bootstr":8319,"##ulations":8320,"functionality":8321,"projected":8322,"discreti":8323,"failures":8324,"german":8325,"##isher":8326,"contours":8327,"ell":8328,"historical":8329,"budget":8330,"mental":8331,"overhead":8332,"assisted":8333,"viol":8334,"ct":8335,"##lingual":8336,"appears":8337,"posture":8338,"completeness":8339,"perceived":8340,"dex":8341,"notation":8342,"jacob":8343,"mov":8344,"commit":8345,"thousands":8346,"therm":8347,"unification":8348,"tradition":8349,"backpropag":8350,"##ativ":8351,"needle":8352,"##modular":8353,"agreement":8354,"unseen":8355,"timing":8356,"identical":8357,"90":8358,"##rich":8359,"##bility":8360,"##otes":8361,"instant":8362,"ie":8363,"parameterized":8364,"browsing":8365,"composite":8366,"allevi":8367,"##part":8368,"aaai":8369,"nd":8370,"ant":8371,"##vation":8372,"mini":8373,"plastic":8374,"excell":8375,"pipeline":8376,"##encing":8377,"notions":8378,"21":8379,"##ii":8380,"otherwise":8381,"essentially":8382,"logs":8383,"controls":8384,"##mon":8385,"former":8386,"optimum":8387,"protein":8388,"visible":8389,"specialized":8390,"corresponds":8391,"acces":8392,"formally":8393,"width":8394,"van":8395,"routing":8396,"constructs":8397,"multimedia":8398,"identifies":8399,"reaction":8400,"##sm":8401,"double":8402,"lstm":8403,"imper":8404,"plausible":8405,"clean":8406,"serial":8407,"##iliary":8408,"computers":8409,"acoustic":8410,"auction":8411,"##otemporal":8412,"newly":8413,"##tz":8414,"##irect":8415,"return":8416,"##imil":8417,"lr":8418,"##tise":8419,"biologically":8420,"counting":8421,"subjective":8422,"deno":8423,"meet":8424,"properly":8425,"##nns":8426,"reveals":8427,"))":8428,"respond":8429,"runtime":8430,"conser":8431,"parse":8432,"balancing":8433,"tok":8434,"attractive":8435,"##roid":8436,"##positions":8437,"reliably":8438,"intention":8439,"remark":8440,"mil":8441,"24":8442,"adm":8443,"names":8444,"fill":8445,"cluttered":8446,"fold":8447,"commands":8448,"emotional":8449,"##field":8450,"adapting":8451,"##ommod":8452,"converges":8453,"streaming":8454,"necessarily":8455,"homogeneous":8456,"auxiliary":8457,"##une":8458,"logistic":8459,"rover":8460,"comes":8461,"decide":8462,"understood":8463,"route":8464,"recep":8465,"did":8466,"proposals":8467,"bandwidth":8468,"accommod":8469,"accum":8470,"conjunction":8471,"advance":8472,"prevent":8473,"##ifications":8474,"dexter":8475,"beam":8476,"2004":8477,"2003":8478,"foreg":8479,"ip":8480,"sufficiently":8481,"stabilization":8482,"geometrical":8483,"subsequently":8484,"round":8485,"craw":8486,"bandit":8487,"robustly":8488,"calculation":8489,"shortest":8490,"replic":8491,"anomaly":8492,"01":8493,"##ster":8494,"##ysiological":8495,"##avity":8496,"disparity":8497,"rise":8498,"multiplic":8499,"concentr":8500,"##relev":8501,"electrical":8502,"aggregate":8503,"cascade":8504,"versus":8505,"lies":8506,"automata":8507,"studying":8508,"placement":8509,"concerning":8510,"throughout":8511,"##eman":8512,"enfor":8513,"spatiotemporal":8514,"acquire":8515,"remaining":8516,"##ptive":8517,"##print":8518,"##book":8519,"expertise":8520,"templates":8521,"##lines":8522,"micros":8523,"gradients":8524,"affected":8525,"circuits":8526,"##mp":8527,"rigorous":8528,"backpropagation":8529,"##actu":8530,"phases":8531,"learners":8532,"physics":8533,"poss":8534,"wave":8535,"##eting":8536,"places":8537,"happ":8538,"##elled":8539,"exhibits":8540,"occlud":8541,"half":8542,"lie":8543,"##iti":8544,"chains":8545,"tweets":8546,"##oks":8547,"##efined":8548,"axioms":8549,"##com":8550,"tracker":8551,"auctions":8552,"contents":8553,"narrow":8554,"recovering":8555,"narr":8556,"##iel":8557,"##len":8558,"enrich":8559,"approximated":8560,"consequence":8561,"##ley":8562,"repos":8563,"encoder":8564,"accepted":8565,"laws":8566,"channels":8567,"intractable":8568,"##az":8569,"session":8570,"comments":8571,"sg":8572,"initialization":8573,"superiority":8574,"generalizes":8575,"speedup":8576,"reaching":8577,"decrease":8578,"foreground":8579,"looking":8580,"slip":8581,"hyd":8582,"##sed":8583,"emo":8584,"##istemic":8585,"analytic":8586,"blog":8587,"excellent":8588,"designers":8589,"selects":8590,"fluid":8591,"##bb":8592,"calculate":8593,"competing":8594,"heart":8595,"delayed":8596,"##eto":8597,"aimed":8598,"cd":8599,"exosk":8600,"reh":8601,"cred":8602,"”,":8603,"##uck":8604,"metad":8605,"programm":8606,"classic":8607,"speaker":8608,"hci":8609,"giving":8610,"invariance":8611,"piecewise":8612,"##tex":8613,"ther":8614,"heav":8615,"scope":8616,"declarative":8617,"eu":8618,"significance":8619,"##roph":8620,"indirect":8621,"viewing":8622,"derivation":8623,"trials":8624,"surprisingly":8625,"treated":8626,"axiom":8627,"everyday":8628,"arrang":8629,"climbing":8630,"journal":8631,"acad":8632,"server":8633,"tracked":8634,"layout":8635,"irrelev":8636,"##wor":8637,"searches":8638,"iterations":8639,"coordinated":8640,"attitude":8641,"purely":8642,"submodular":8643,"translations":8644,"located":8645,"fragment":8646,"##onstrained":8647,"td":8648,"tit":8649,"relying":8650,"writing":8651,"smoothness":8652,"fingers":8653,"held":8654,"lem":8655,"pac":8656,"largest":8657,"##ateral":8658,"omnidirectional":8659,"adjac":8660,"metadata":8661,"interpolation":8662,"rf":8663,"forest":8664,"stri":8665,"satisfying":8666,"23":8667,"substit":8668,"executed":8669,"##easible":8670,"assumes":8671,"grammatical":8672,"screen":8673,"##iable":8674,"##fin":8675,"##@@":8676,"solves":8677,"##etric":8678,"preserve":8679,"taxonomy":8680,"fisher":8681,"nash":8682,"live":8683,"cable":8684,"##ool":8685,"polyg":8686,"conform":8687,"modality":8688,"##omic":8689,"alternating":8690,"exponentially":8691,"heavy":8692,"##neg":8693,"multidimensional":8694,"subspaces":8695,"tuned":8696,");":8697,"fragments":8698,"tables":8699,"##ensities":8700,"imagery":8701,"phone":8702,"##link":8703,"multilingual":8704,"expres":8705,"simplicity":8706,"conven":8707,"optimally":8708,"##iring":8709,"##umer":8710,"attain":8711,"enabled":8712,"contin":8713,"reuse":8714,"resc":8715,"spam":8716,"##optim":8717,"cum":8718,"##itively":8719,"aligned":8720,"importantly":8721,"entries":8722,"chem":8723,"absence":8724,"asymmetric":8725,"40":8726,"grasps":8727,"avoids":8728,"##utive":8729,"autonomy":8730,"##acies":8731,"chip":8732,"rou":8733,"intent":8734,"thorough":8735,"ho":8736,"appar":8737,"trec":8738,"pois":8739,"manage":8740,"##bp":8741,"matched":8742,"concrete":8743,"processed":8744,"slight":8745,"seems":8746,"##encod":8747,"playing":8748,"persist":8749,"ensembles":8750,"proportional":8751,"intra":8752,"vertex":8753,"inferred":8754,"smartph":8755,"possess":8756,"bear":8757,"seek":8758,"placed":8759,"inequality":8760,"rr":8761,"late":8762,"fire":8763,"accounts":8764,"mixtures":8765,"summaries":8766,"pet":8767,"transportation":8768,")-":8769,"strategic":8770,"photo":8771,"asympto":8772,"compares":8773,"advertising":8774,"intensive":8775,"##problem":8776,"disturbance":8777,"format":8778,"visibility":8779,"opinions":8780,"status":8781,"jud":8782,"tip":8783,"adaptively":8784,"querying":8785,"enhancing":8786,"initially":8787,"processor":8788,"below":8789,"rewards":8790,"confirmed":8791,"bill":8792,"##hn":8793,"ica":8794,"temperature":8795,"cast":8796,"financ":8797,"covering":8798,"ellip":8799,"traditionally":8800,"bp":8801,"##urring":8802,"associations":8803,"lightweight":8804,"buy":8805,"layered":8806,"autoencod":8807,"serious":8808,"quantify":8809,"primarily":8810,"ultim":8811,"national":8812,"##theless":8813,"nevertheless":8814,"##di":8815,"driver":8816,"drawing":8817,"intersection":8818,"retin":8819,"trace":8820,"lt":8821,"lam":8822,"che":8823,"##flow":8824,"jump":8825,"strengths":8826,"conduc":8827,"negl":8828,"inner":8829,"##plan":8830,"arises":8831,"##aphor":8832,"equilibria":8833,"##ift":8834,"smt":8835,"cnns":8836,"pooling":8837,"##ann":8838,"overlap":8839,"trigger":8840,"vibration":8841,"transaction":8842,"resolve":8843,"80":8844,"adjustment":8845,"##dps":8846,"##co":8847,"reson":8848,"retrieve":8849,"##inity":8850,"height":8851,"financial":8852,"actively":8853,"##alities":8854,"projective":8855,"cellular":8856,"facilitates":8857,"##top":8858,"biased":8859,"millions":8860,"unf":8861,"encountered":8862,"displacement":8863,"\",":8864,"carefully":8865,"pedestrian":8866,"considerably":8867,"##kf":8868,"##conn":8869,"inconsistent":8870,"##crib":8871,"orac":8872,"norms":8873,"minima":8874,"iv":8875,"l1":8876,"predicts":8877,"##track":8878,"revealed":8879,"judgments":8880,"outside":8881,"pick":8882,"##den":8883,"chaotic":8884,"mdp":8885,"ws":8886,"##here":8887,"demonstrations":8888,"keeping":8889,"adequate":8890,"dp":8891,"fish":8892,"posts":8893,"conversation":8894,"rehabil":8895,"usual":8896,"##ours":8897,"peak":8898,"centered":8899,"recip":8900,"##set":8901,"##rect":8902,"minimizes":8903,"passing":8904,"##sivity":8905,"predicates":8906,"quadrot":8907,"fly":8908,"##sification":8909,"elimination":8910,"reus":8911,"penalty":8912,"emotions":8913,"”.":8914,"wheeled":8915,"attached":8916,"irrelevant":8917,"developer":8918,"##cope":8919,"##qa":8920,"grant":8921,"mesh":8922,"2000":8923,"afford":8924,"holds":8925,"%,":8926,"pal":8927,"##aur":8928,"stro":8929,"modify":8930,"deformations":8931,"leverages":8932,"##ered":8933,"pron":8934,"conclusions":8935,"remove":8936,"turns":8937,"##going":8938,"compatible":8939,"gripper":8940,"reflection":8941,"systematically":8942,"away":8943,"lateral":8944,"pin":8945,"contacts":8946,"22":8947,"##</":8948,"characterizing":8949,"hierarchies":8950,"room":8951,"reconstruct":8952,"##....":8953,"retrieved":8954,"enhancement":8955,"legs":8956,"formalisms":8957,"briefly":8958,"laplac":8959,"drop":8960,"gained":8961,"##haus":8962,"anch":8963,"cli":8964,"hi":8965,"implicitly":8966,"duration":8967,"highest":8968,"nonhol":8969,"attrib":8970,"costly":8971,"stress":8972,"approximating":8973,"windows":8974,"fm":8975,"ner":8976,"arbitrarily":8977,"##isp":8978,"compound":8979,"##tition":8980,"subsum":8981,"##accur":8982,"hundreds":8983,"##pted":8984,"communicate":8985,"si":8986,"offic":8987,"abduc":8988,"fed":8989,"extracts":8990,"compositional":8991,"dedic":8992,"analytically":8993,"satisfies":8994,"gib":8995,"gas":8996,"simulate":8997,"2001":8998,"symbols":8999,"##omorphic":9000,"prototypes":9001,"midd":9002,"pne":9003,"##erce":9004,"trial":9005,"insertion":9006,"##ky":9007,"blur":9008,"satisfact":9009,"coefficient":9010,"inverted":9011,"supply":9012,"uniqu":9013,"exploratory":9014,"predefined":9015,"eight":9016,"##ularities":9017,"backward":9018,"eth":9019,"sort":9020,"sust":9021,"bidirectional":9022,"presenting":9023,"keyp":9024,"fp":9025,"graphics":9026,"engagement":9027,"satell":9028,"stem":9029,"##ung":9030,"##actuated":9031,"interpretable":9032,"beneficial":9033,"seam":9034,"manipulate":9035,"split":9036,"nuc":9037,"rotational":9038,"conversational":9039,"nonholonomic":9040,"speeds":9041,"##ulum":9042,"navigate":9043,"nonmon":9044,"secondly":9045,"entry":9046,"manifolds":9047,"rehabilitation":9048,"impul":9049,"implies":9050,"##},":9051,"imm":9052,"##ishing":9053,"impossible":9054,"1990":9055,"execute":9056,"temporally":9057,"denoising":9058,"obvious":9059,"##bert":9060,"horn":9061,"ng":9062,"##sh":9063,"practices":9064,"distributional":9065,"morphology":9066,"dominant":9067,"dissimil":9068,"interpretations":9069,"multiclass":9070,"tour":9071,"defines":9072,"lattice":9073,"multit":9074,"frequencies":9075,"say":9076,"middle":9077,"rm":9078,"2002":9079,"customers":9080,"##eterm":9081,"laplacian":9082,"##ented":9083,"trends":9084,"mind":9085,"observing":9086,"bottlen":9087,"plasticity":9088,"##umatic":9089,"minimax":9090,"remov":9091,"investigating":9092,"consequences":9093,"surrounding":9094,"##enet":9095,"1996":9096,"27":9097,"26":9098,"lingual":9099,"mapped":9100,"segmented":9101,"predictor":9102,"inherently":9103,"rev":9104,"considerations":9105,"##akes":9106,"auditory":9107,"interconn":9108,"balanced":9109,"deduc":9110,"shaped":9111,"1993":9112,"goog":9113,"satisfied":9114,"rc":9115,"##rs":9116,"##eth":9117,"locality":9118,"monitor":9119,"prost":9120,"relate":9121,"fourier":9122,"italic":9123,"mid":9124,"##elect":9125,"incorrect":9126,"ble":9127,"rs":9128,"scanning":9129,"attracted":9130,"pointing":9131,"coalition":9132,"asymptotically":9133,"exceed":9134,"posed":9135,"1992":9136,"seeking":9137,"decoder":9138,"bund":9139,"nested":9140,"potentials":9141,"mask":9142,"##izable":9143,"epistemic":9144,"dedicated":9145,"##ember":9146,"exhaus":9147,"helpful":9148,"divided":9149,"inaccur":9150,"neither":9151,"seven":9152,"root":9153,"intervention":9154,"##inear":9155,"1998":9156,"famil":9157,"##written":9158,"slave":9159,"mitig":9160,"##aining":9161,"unconstrained":9162,"invariants":9163,"anonym":9164,"column":9165,"cub":9166,"##joy":9167,"provably":9168,"formulations":9169,"photometric":9170,"tolerance":9171,"cue":9172,"strings":9173,"vast":9174,"enjoy":9175,"realization":9176,"medium":9177,"fid":9178,"##ramid":9179,"outline":9180,"rst":9181,"##entive":9182,"enumer":9183,"suboptim":9184,"termination":9185,"reflectance":9186,"##bl":9187,"refine":9188,"pursuit":9189,"##erge":9190,"deriving":9191,"synchronous":9192,"intuition":9193,"dt":9194,"centralized":9195,"##ga":9196,"##edical":9197,"abilities":9198,"institute":9199,"thread":9200,"localized":9201,"occurring":9202,"lens":9203,"tracks":9204,"subsystem":9205,"affects":9206,"susp":9207,"bip":9208,"nonmonotonic":9209,"bad":9210,"anti":9211,"warp":9212,"pyramid":9213,"imposed":9214,"jacobian":9215,"arising":9216,"school":9217,"specifying":9218,"operates":9219,"join":9220,"quantif":9221,"ordinal":9222,"til":9223,"##aphr":9224,"markets":9225,"inferences":9226,"moments":9227,"pneumatic":9228,"removal":9229,"##ime":9230,"subproblem":9231,"reven":9232,"lea":9233,"ordinary":9234,"friends":9235,"proceedings":9236,"bol":9237,"cardinal":9238,"flying":9239,"bridge":9240,"govern":9241,"32":9242,"##bank":9243,"antic":9244,"refined":9245,"rendering":9246,"maneuver":9247,"##oo":9248,"##avi":9249,"##ession":9250,"modifications":9251,"##uped":9252,"promise":9253,"schedule":9254,"##ortions":9255,"meeting":9256,"biomedical":9257,"talk":9258,"developments":9259,"elicit":9260,"convey":9261,"##iliar":9262,"granular":9263,"snake":9264,"epis":9265,"diagrams":9266,"synapses":9267,"gold":9268,"imitation":9269,"velocities":9270,"entailment":9271,"isol":9272,"rewriting":9273,"readily":9274,"calibrated":9275,"stead":9276,"gravity":9277,"perspec":9278,"hr":9279,"##arge":9280,"##norm":9281,"similarly":9282,"pu":9283,"thes":9284,"option":9285,"limb":9286,"ilp":9287,"backtrack":9288,"ensures":9289,"guidelines":9290,"diagnostic":9291,"compensate":9292,"##icing":9293,"commerce":9294,"severe":9295,"28":9296,"lm":9297,"handled":9298,"rolling":9299,"definite":9300,"clouds":9301,"statements":9302,"google":9303,"nonneg":9304,"families":9305,"appe":9306,"exce":9307,"1995":9308,"grounded":9309,"therap":9310,"60":9311,"ions":9312,"##ulative":9313,"decid":9314,"squared":9315,"ld":9316,"##ink":9317,"amb":9318,"quadruped":9319,"gibbs":9320,"voice":9321,"convenient":9322,"##ont":9323,"regis":9324,"targeted":9325,"latency":9326,"underactuated":9327,"decades":9328,"emphasis":9329,"##asses":9330,"derivatives":9331,"nominal":9332,"removing":9333,"##ae":9334,"anth":9335,"resist":9336,"quantified":9337,"exoskeleton":9338,"monot":9339,"physically":9340,"critic":9341,"anne":9342,"friend":9343,"education":9344,"1997":9345,"worlds":9346,"paraphr":9347,"microb":9348,"partitions":9349,"cuts":9350,"vl":9351,"##mar":9352,"dramatically":9353,"anticip":9354,"optimisation":9355,"oppon":9356,"##itz":9357,"circular":9358,"##ielding":9359,"##cm":9360,"##olec":9361,"signature":9362,"horizontal":9363,"compressed":9364,"overf":9365,"artif":9366,"micror":9367,"transforms":9368,"lid":9369,"mn":9370,"##coming":9371,"##itud":9372,"predictors":9373,"mos":9374,"ted":9375,"equip":9376,"mine":9377,"demands":9378,"##atics":9379,"pref":9380,"lasso":9381,"mdps":9382,"options":9383,"parsers":9384,"routin":9385,"##get":9386,"##izers":9387,"matter":9388,"saving":9389,"tailored":9390,"mentioned":9391,"lagr":9392,"sonar":9393,"##etary":9394,"##acing":9395,"decade":9396,"argu":9397,"oracle":9398,"##uly":9399,"continuum":9400,"):":9401,"bodies":9402,"##box":9403,"quantitatively":9404,"bet":9405,"interview":9406,"physiological":9407,"leader":9408,"cartes":9409,"exploitation":9410,"cos":9411,"stock":9412,"fingerti":9413,"nmf":9414,"push":9415,"house":9416,"yielding":9417,"satisfactory":9418,"cycles":9419,"devise":9420,"perturbation":9421,"perturbations":9422,"rect":9423,"rescue":9424,"derivative":9425,"cartesian":9426,"sd":9427,"newton":9428,"perspectives":9429,"qa":9430,"sized":9431,"##dom":9432,"acts":9433,"gender":9434,"assessing":9435,"assignments":9436,"encouraging":9437,"accordingly":9438,"##siveness":9439,"tutorial":9440,"unpr":9441,"thanks":9442,"hopfield":9443,"noncon":9444,"detects":9445,"economic":9446,"></":9447,"society":9448,"locate":9449,"##ony":9450,"traces":9451,"successive":9452,"viewpoints":9453,"2017":9454,"dictionaries":9455,"creates":9456,"##ame":9457,"stop":9458,"comprom":9459,"print":9460,"orientations":9461,"irreg":9462,"##graph":9463,"##att":9464,"bipedal":9465,"##ogen":9466,"deciding":9467,"transactions":9468,"consumer":9469,"##hou":9470,"proposing":9471,"gaits":9472,"drug":9473,"things":9474,"cancer":9475,"damp":9476,"acting":9477,"learnt":9478,"artifacts":9479,"skeleton":9480,"##otor":9481,"versati":9482,"##ipl":9483,"stre":9484,"heavi":9485,"fails":9486,"old":9487,"##icious":9488,"##abo":9489,"heavily":9490,"mlp":9491,"##rup":9492,"unexp":9493,"uniformly":9494,"chun":9495,"##while":9496,"serves":9497,"assistive":9498,"sessions":9499,"$$":9500,"##tric":9501,"##ka":9502,"moder":9503,"trains":9504,"equally":9505,"##ians":9506,"##gent":9507,"experimentation":9508,"microrob":9509,"men":9510,"rare":9511,"##val":9512,"##eme":9513,"month":9514,"reconstruc":9515,"breaking":9516,"enterpr":9517,"##lies":9518,"sequentially":9519,"constructive":9520,"revenue":9521,"95":9522,"reconstructed":9523,"motors":9524,"##asts":9525,"purch":9526,"mag":9527,"recovered":9528,"neurom":9529,"office":9530,"nonnegative":9531,"anthrop":9532,"36":9533,"ensuring":9534,"tolerant":9535,"permits":9536,"pomdps":9537,"wild":9538,"##aff":9539,"methodologies":9540,"connectionist":9541,"nl":9542,"##inter":9543,"induce":9544,"categorical":9545,"negation":9546,"eliminate":9547,"cutting":9548,"clutter":9549,"##hr":9550,"cloth":9551,"opportunity":9552,"strictly":9553,"opposed":9554,"ease":9555,"f1":9556,"loops":9557,"wrist":9558,"mrf":9559,"splitting":9560,"pomdp":9561,"##ek":9562,"insu":9563,"handwritten":9564,"theorems":9565,"poorly":9566,"sf":9567,"probe":9568,"1994":9569,"satellite":9570,"averaging":9571,"unexpected":9572,"profession":9573,"repeat":9574,"winner":9575,"cad":9576,"desk":9577,"scans":9578,"disjunctive":9579,"shallow":9580,"alleviate":9581,"poisson":9582,"##esth":9583,"solely":9584,"planes":9585,"influences":9586,"epip":9587,"receptive":9588,"airc":9589,"discipl":9590,"consec":9591,"intentions":9592,"neighboring":9593,"ds":9594,"occupancy":9595,"wing":9596,"##ampling":9597,"interd":9598,"individ":9599,"elementary":9600,"eigenvalu":9601,"pend":9602,"ll":9603,"living":9604,"##nian":9605,"obtains":9606,"thought":9607,"hil":9608,"losses":9609,"biometric":9610,"maximizes":9611,"seamless":9612,"centric":9613,"promin":9614,"narrative":9615,"file":9616,"handles":9617,"delivery":9618,"tion":9619,"innovative":9620,"developers":9621,"memories":9622,"econom":9623,"pitch":9624,"rt":9625,"minor":9626,"academic":9627,"##ert":9628,"manipulating":9629,"separated":9630,"appropriately":9631,"deviation":9632,"aided":9633,"##arithm":9634,"prover":9635,"textures":9636,"anytime":9637,"emergence":9638,"teacher":9639,"slightly":9640,"\">":9641,"invasive":9642,"molec":9643,"possibilities":9644,"localize":9645,"quadrotor":9646,"##atom":9647,"scri":9648,"visit":9649,"install":9650,"drawbacks":9651,"regulation":9652,"eleg":9653,"thermal":9654,"mor":9655,"##ette":9656,"sharp":9657,"emerged":9658,"coreference":9659,"adoption":9660,"paradigms":9661,"originally":9662,"suboptimal":9663,"imprec":9664,"plus":9665,"explained":9666,"generality":9667,"mirror":9668,"aiming":9669,"itemsets":9670,"00":9671,"les":9672,"ns":9673,"rid":9674,"cyclic":9675,"pil":9676,"admis":9677,"##related":9678,"macro":9679,"resonance":9680,"organizations":9681,"accomplished":9682,"unst":9683,"neuros":9684,"31":9685,"encodes":9686,"bottleneck":9687,"wish":9688,"##iss":9689,"forum":9690,"acquiring":9691,"##ki":9692,"##vex":9693,"clari":9694,"accessible":9695,"occluded":9696,"null":9697,"imbalanced":9698,"uavs":9699,"aircraft":9700,"##cale":9701,"inconsistency":9702,"requests":9703,"modul":9704,"##tite":9705,"hyperparamet":9706,"assistant":9707,"acceptable":9708,"reconfigurable":9709,"##ba":9710,"##ropic":9711,"weather":9712,"arithm":9713,"establishing":9714,"don":9715,"mf":9716,"polyhed":9717,"missions":9718,"volt":9719,"communications":9720,"kl":9721,"trend":9722,"inclusion":9723,"changed":9724,"affinity":9725,"collisions":9726,"hebb":9727,"flo":9728,"ech":9729,"##ox":9730,"##uation":9731,"##roup":9732,"picture":9733,"ram":9734,"caption":9735,"torques":9736,"bilateral":9737,"deduction":9738,"atomic":9739,"1991":9740,"pain":9741,"##ean":9742,"client":9743,"workload":9744,"ko":9745,"##elity":9746,"senses":9747,"respective":9748,"lf":9749,"swing":9750,"boltz":9751,"feel":9752,"centers":9753,"preced":9754,"formalize":9755,"steady":9756,"##yth":9757,"##abic":9758,"testbed":9759,"regarded":9760,"individually":9761,"##esp":9762,"regardless":9763,"returns":9764,"repository":9765,"fra":9766,"executing":9767,"landing":9768,"##stream":9769,"stories":9770,"distant":9771,"earth":9772,"##yclic":9773,"singularity":9774,"kr":9775,"quantities":9776,"grows":9777,"rectang":9778,"pm":9779,"vc":9780,"spot":9781,"monol":9782,"crf":9783,"conversion":9784,"##ogeneity":9785,"1999":9786,"elabor":9787,"##aboost":9788,"##bound":9789,"unn":9790,"analyse":9791,"collecting":9792,"xi":9793,"##chair":9794,"uncover":9795,"electrom":9796,"inequalities":9797,"duplic":9798,"ty":9799,"##arr":9800,"abstractions":9801,"overfitting":9802,"usa":9803,"minimally":9804,"fabrication":9805,"poli":9806,"boltzmann":9807,"cv":9808,"supervis":9809,"pieces":9810,"prohib":9811,"shelf":9812,"##ught":9813,"connecting":9814,"mcmc":9815,"chemical":9816,"logarithm":9817,"suggestions":9818,"arithmetic":9819,"##los":9820,"examining":9821,"irregular":9822,"exerc":9823,"1988":9824,"occurrences":9825,"##ws":9826,"##entic":9827,"spr":9828,"photos":9829,"annealing":9830,"##tia":9831,"acyclic":9832,"termed":9833,"conserv":9834,"compet":9835,"sphere":9836,"managing":9837,"reached":9838,"intuitively":9839,"instructions":9840,"adjacent":9841,"cer":9842,"##ury":9843,"indicating":9844,"fidelity":9845,"consecutive":9846,"bic":9847,"planned":9848,"examines":9849,"populations":9850,"indices":9851,"##——":9852,"anatom":9853,"develops":9854,"##esthetic":9855,"...":9856,"calls":9857,"biology":9858,"microblog":9859,"tension":9860,"uc":9861,"floor":9862,"divide":9863,"##gan":9864,"##ened":9865,"##level":9866,"biases":9867,"tableau":9868,"fulf":9869,"parallelism":9870,"sky":9871,"payload":9872,"ber":9873,"ce":9874,"oct":9875,"##ept":9876,"translated":9877,"roc":9878,"##ode":9879,"suffers":9880,"mism":9881,"##10":9882,"sparql":9883,"exhaustive":9884,"rar":9885,"tract":9886,"##oration":9887,"ads":9888,"portion":9889,"##orse":9890,"graphic":9891,"advertis":9892,"surrog":9893,"gathered":9894,"immediate":9895,"multipl":9896,"analogy":9897,"discrep":9898,"ongoing":9899,"cardinality":9900,"##anger":9901,"##ameter":9902,"refers":9903,"aggregated":9904,"mismatch":9905,"##abel":9906,"##adic":9907,"surge":9908,"particles":9909,"profit":9910,"weakness":9911,"##ocal":9912,"wordnet":9913,"forming":9914,"cognition":9915,"informed":9916,"implements":9917,"batter":9918,"tv":9919,"conditioning":9920,"maintains":9921,"##eced":9922,"going":9923,"segmenting":9924,"##parts":9925,"prioriti":9926,"momentum":9927,"stroke":9928,"mri":9929,"authentic":9930,"excit":9931,"animals":9932,"latex":9933,"##tag":9934,"spon":9935,"35":9936,"comprehension":9937,"histograms":9938,"lidar":9939,"networked":9940,"gray":9941,"topical":9942,"1989":9943,"insufficient":9944,"##hold":9945,"connect":9946,"food":9947,"shading":9948,"europ":9949,"99":9950,"transcri":9951,"restriction":9952,"conflicts":9953,"cumulative":9954,"##--":9955,"verbs":9956,"interpre":9957,"periods":9958,"##zy":9959,"##scale":9960,"turning":9961,"barri":9962,"priority":9963,"##vant":9964,"assigning":9965,"1987":9966,"dexterous":9967,"pie":9968,"##umb":9969,"curved":9970,"calculating":9971,"decreases":9972,"##stand":9973,"accuracies":9974,"swim":9975,"ambiguities":9976,"dee":9977,"adaboost":9978,"transparent":9979,"formulae":9980,"solid":9981,"conj":9982,"relating":9983,"flows":9984,"meanwhile":9985,"branching":9986,"companies":9987,"utterances":9988,"##iling":9989,"closer":9990,"inj":9991,"educational":9992,"mist":9993,"wheelchair":9994,"faced":9995,"suggesting":9996,"amplitude":9997,"rom":9998,"phil":9999}}}